<unk>	0
<s>	0
</s>	0
<pad>	0
<0x00>	0
<0x01>	0
<0x02>	0
<0x03>	0
<0x04>	0
<0x05>	0
<0x06>	0
<0x07>	0
<0x08>	0
<0x09>	0
<0x0A>	0
<0x0B>	0
<0x0C>	0
<0x0D>	0
<0x0E>	0
<0x0F>	0
<0x10>	0
<0x11>	0
<0x12>	0
<0x13>	0
<0x14>	0
<0x15>	0
<0x16>	0
<0x17>	0
<0x18>	0
<0x19>	0
<0x1A>	0
<0x1B>	0
<0x1C>	0
<0x1D>	0
<0x1E>	0
<0x1F>	0
<0x20>	0
<0x21>	0
<0x22>	0
<0x23>	0
<0x24>	0
<0x25>	0
<0x26>	0
<0x27>	0
<0x28>	0
<0x29>	0
<0x2A>	0
<0x2B>	0
<0x2C>	0
<0x2D>	0
<0x2E>	0
<0x2F>	0
<0x30>	0
<0x31>	0
<0x32>	0
<0x33>	0
<0x34>	0
<0x35>	0
<0x36>	0
<0x37>	0
<0x38>	0
<0x39>	0
<0x3A>	0
<0x3B>	0
<0x3C>	0
<0x3D>	0
<0x3E>	0
<0x3F>	0
<0x40>	0
<0x41>	0
<0x42>	0
<0x43>	0
<0x44>	0
<0x45>	0
<0x46>	0
<0x47>	0
<0x48>	0
<0x49>	0
<0x4A>	0
<0x4B>	0
<0x4C>	0
<0x4D>	0
<0x4E>	0
<0x4F>	0
<0x50>	0
<0x51>	0
<0x52>	0
<0x53>	0
<0x54>	0
<0x55>	0
<0x56>	0
<0x57>	0
<0x58>	0
<0x59>	0
<0x5A>	0
<0x5B>	0
<0x5C>	0
<0x5D>	0
<0x5E>	0
<0x5F>	0
<0x60>	0
<0x61>	0
<0x62>	0
<0x63>	0
<0x64>	0
<0x65>	0
<0x66>	0
<0x67>	0
<0x68>	0
<0x69>	0
<0x6A>	0
<0x6B>	0
<0x6C>	0
<0x6D>	0
<0x6E>	0
<0x6F>	0
<0x70>	0
<0x71>	0
<0x72>	0
<0x73>	0
<0x74>	0
<0x75>	0
<0x76>	0
<0x77>	0
<0x78>	0
<0x79>	0
<0x7A>	0
<0x7B>	0
<0x7C>	0
<0x7D>	0
<0x7E>	0
<0x7F>	0
<0x80>	0
<0x81>	0
<0x82>	0
<0x83>	0
<0x84>	0
<0x85>	0
<0x86>	0
<0x87>	0
<0x88>	0
<0x89>	0
<0x8A>	0
<0x8B>	0
<0x8C>	0
<0x8D>	0
<0x8E>	0
<0x8F>	0
<0x90>	0
<0x91>	0
<0x92>	0
<0x93>	0
<0x94>	0
<0x95>	0
<0x96>	0
<0x97>	0
<0x98>	0
<0x99>	0
<0x9A>	0
<0x9B>	0
<0x9C>	0
<0x9D>	0
<0x9E>	0
<0x9F>	0
<0xA0>	0
<0xA1>	0
<0xA2>	0
<0xA3>	0
<0xA4>	0
<0xA5>	0
<0xA6>	0
<0xA7>	0
<0xA8>	0
<0xA9>	0
<0xAA>	0
<0xAB>	0
<0xAC>	0
<0xAD>	0
<0xAE>	0
<0xAF>	0
<0xB0>	0
<0xB1>	0
<0xB2>	0
<0xB3>	0
<0xB4>	0
<0xB5>	0
<0xB6>	0
<0xB7>	0
<0xB8>	0
<0xB9>	0
<0xBA>	0
<0xBB>	0
<0xBC>	0
<0xBD>	0
<0xBE>	0
<0xBF>	0
<0xC0>	0
<0xC1>	0
<0xC2>	0
<0xC3>	0
<0xC4>	0
<0xC5>	0
<0xC6>	0
<0xC7>	0
<0xC8>	0
<0xC9>	0
<0xCA>	0
<0xCB>	0
<0xCC>	0
<0xCD>	0
<0xCE>	0
<0xCF>	0
<0xD0>	0
<0xD1>	0
<0xD2>	0
<0xD3>	0
<0xD4>	0
<0xD5>	0
<0xD6>	0
<0xD7>	0
<0xD8>	0
<0xD9>	0
<0xDA>	0
<0xDB>	0
<0xDC>	0
<0xDD>	0
<0xDE>	0
<0xDF>	0
<0xE0>	0
<0xE1>	0
<0xE2>	0
<0xE3>	0
<0xE4>	0
<0xE5>	0
<0xE6>	0
<0xE7>	0
<0xE8>	0
<0xE9>	0
<0xEA>	0
<0xEB>	0
<0xEC>	0
<0xED>	0
<0xEE>	0
<0xEF>	0
<0xF0>	0
<0xF1>	0
<0xF2>	0
<0xF3>	0
<0xF4>	0
<0xF5>	0
<0xF6>	0
<0xF7>	0
<0xF8>	0
<0xF9>	0
<0xFA>	0
<0xFB>	0
<0xFC>	0
<0xFD>	0
<0xFE>	0
<0xFF>	0
..	-0
--	-1
~~	-2
不错	-3
味道	-4
还是	-5
没有	-6
一个	-7
----	-8
就是	-9
可以	-10
服务	-11
好吃	-12
我们	-13
感觉	-14
喜欢	-15
....	-16
不过	-17
什么	-18
比较	-19
时候	-20
但是	-21
不是	-22
还有	-23
这个	-24
觉得	-25
一般	-26
这里	-27
有点	-28
里面	-29
的时候	-30
很多	-31
因为	-32
所以	-33
都是	-34
了一	-35
这家	-36
服务员	-37
而且	-38
东西	-39
--------	-40
吃的	-41
点了	-42
环境	-43
朋友	-44
很好	-45
的是	-46
知道	-47
个人	-48
也不	-49
他们	-50
......	-51
价格	-52
非常	-53
自己	-54
家的	-55
地方	-56
一次	-57
~~~	-58
特别	-59
那个	-60
现在	-61
真的	-62
口味	-63
看到	-64
牛肉	-65
去的	-66
也是	-67
▁我	-68
一点	-69
吃了	-70
不错的	-71
起来	-72
怎么	-73
的味道	-74
推荐	-75
其他	-76
··	-77
也很	-78
的一	-79
虽然	-80
其实	-81
还不错	-82
那么	-83
哈哈	-84
最后	-85
的人	-86
出来	-87
不知道	-88
还可以	-89
好的	-90
一样	-91
一直	-92
不多	-93
便宜	-94
应该	-95
~~~~	-96
时间	-97
后来	-98
去了	-99
可能	-100
已经	-101
以前	-102
然后	-103
这样	-104
真是	-105
好像	-106
发现	-107
一下	-108
----------------	-109
如果	-110
实在	-111
这家店	-112
每次	-113
到了	-114
很好吃	-115
上来	-116
结果	-117
老板	-118
点的	-119
豆腐	-120
的感觉	-121
基本	-122
的小	-123
呵呵	-124
新鲜	-125
来说	-126
开始	-127
吃过	-128
大家	-129
做的	-130
以后	-131
特色	-132
态度	-133
不会	-134
口感	-135
里面的	-136
吃饭	-137
那种	-138
不是很	-139
一起	-140
只有	-141
的话	-142
蛋糕	-143
多了	-144
大的	-145
▁很	-146
我的	-147
这么	-148
他家的	-149
的菜	-150
有些	-151
第一次	-152
都不	-153
好吃的	-154
一份	-155
他家	-156
之后	-157
好多	-158
晚上	-159
之前	-160
的地方	-161
这里的	-162
只是	-163
面包	-164
没什么	-165
不能	-166
那里	-167
一些	-168
进去	-169
本来	-170
选择	-171
不太	-172
几个	-173
适合	-174
套餐	-175
不好	-176
吃完	-177
也不错	-178
买了	-179
面的	-180
羊肉	-181
▁但是	-182
餐厅	-183
都很	-184
于是	-185
什么的	-186
经常	-187
中午	-188
可是	-189
上的	-190
▁不过	-191
两个	-192
海鲜	-193
今天	-194
这种	-195
的东西	-196
装修	-197
火锅	-198
很有	-199
生意	-200
还算	-201
差不多	-202
说是	-203
附近	-204
多的	-205
咖啡	-206
来的	-207
要了	-208
吃到	-209
还行	-210
去吃	-211
让我	-212
很不错	-213
吃不	-214
饮料	-215
上海	-216
▁不	-217
问题	-218
点评	-219
干净	-220
好了	-221
门口	-222
居然	-223
舒服	-224
确实	-225
旁边	-226
店里	-227
一家	-228
下次	-229
倒是	-230
就不	-231
来了	-232
一定	-233
位置	-234
要是	-235
记得	-236
很喜欢	-237
总体	-238
土豆	-239
估计	-240
算是	-241
只能	-242
看着	-243
貌似	-244
菜的	-245
反正	-246
▁就	-247
很大	-248
都有	-249
上面	-250
当然	-251
▁这	-252
▁一	-253
让人	-254
▁味道	-255
不少	-256
我觉得	-257
▁在	-258
小时	-259
完全	-260
方便	-261
外面	-262
入味	-263
超级	-264
也没	-265
同事	-266
印象	-267
也就	-268
第二	-269
招牌	-270
名字	-271
还好	-272
奶茶	-273
▁有	-274
看了	-275
老公	-276
直接	-277
给我	-278
过来	-279
大概	-280
实惠	-281
当时	-282
是我	-283
下午	-284
人的	-285
喜欢吃	-286
优惠	-287
不到	-288
样子	-289
同学	-290
克力	-291
巧克力	-292
块钱	-293
自助	-294
了点	-295
喜欢的	-296
分钟	-297
的很	-298
芝士	-299
以为	-300
正好	-301
类的	-302
值得	-303
有个	-304
蔬菜	-305
性价	-306
另外	-307
咖喱	-308
不要	-309
下来	-310
性价比	-311
的好	-312
原来	-313
上去	-314
或者	-315
除了	-316
客人	-317
失望	-318
的店	-319
相当	-320
随便	-321
桌子	-322
还是很	-323
水果	-324
活动	-325
都没有	-326
的大	-327
想到	-328
▁因为	-329
可惜	-330
不够	-331
也有	-332
普通	-333
这次	-334
在这里	-335
辣的	-336
看看	-337
里的	-338
▁所以	-339
第一	-340
本书	-341
电话	-342
去过	-343
价钱	-344
需要	-345
也没有	-346
分量	-347
绝对	-348
免费	-349
都没	-350
排队	-351
热情	-352
最近	-353
两个人	-354
我就	-355
,,	-356
北京	-357
不大	-358
是不是	-359
牛排	-360
各种	-361
上菜	-362
还是不错的	-363
沙拉	-364
对于	-365
肯定	-366
小的	-367
菜单	-368
都会	-369
速度	-370
吃起来	-371
左右	-372
尤其	-373
寿司	-374
想吃	-375
过去	-376
那天	-377
有一	-378
味道不错	-379
意思	-380
▁还有	-381
质量	-382
我是	-383
正宗	-384
▁就是	-385
鸡肉	-386
希望	-387
容易	-388
建议	-389
他们家的	-390
▁但	-391
上了	-392
麻辣	-393
买的	-394
还要	-395
消费	-396
不同	-397
一般般	-398
有的	-399
就在	-400
介绍	-401
美味	-402
酒店	-403
满意	-404
公司	-405
人家	-406
真的是	-407
竟然	-408
的说	-409
▁而且	-410
好好	-411
几次	-412
总之	-413
应该是	-414
萝卜	-415
品种	-416
很少	-417
排骨	-418
中的	-419
▁和	-420
为了	-421
路过	-422
工作	-423
可能是	-424
不如	-425
米饭	-426
团购	-427
吃吃	-428
几乎	-429
▁还	-430
菜品	-431
点心	-432
昨天	-433
实在是	-434
__	-435
一碗	-436
▁我们	-437
很香	-438
终于	-439
子的	-440
了个	-441
这边	-442
饭店	-443
甜的	-444
多少	-445
色的	-446
都要	-447
尝试	-448
~~~~~~~~	-449
奶油	-450
了一下	-451
不算	-452
三文	-453
不怎么	-454
上次	-455
效果	-456
基本上	-457
▁这个	-458
妈妈	-459
鸡翅	-460
心的	-461
有人	-462
去的时候	-463
这样的	-464
还没	-465
一个人	-466
别的	-467
部分	-468
由于	-469
这些	-470
来这里	-471
最爱	-472
很久	-473
的那种	-474
三文鱼	-475
的一家	-476
根本	-477
为什么	-478
是一	-479
▁感觉	-480
回家	-481
其他的	-482
稍微	-483
服务态度	-484
里面有	-485
加了	-486
要求	-487
那些	-488
之类的	-489
试试	-490
出来的	-491
总是	-492
辣椒	-493
得很	-494
头发	-495
道菜	-496
衣服	-497
风格	-498
没想到	-499
毕竟	-500
日本	-501
味的	-502
是个	-503
尝尝	-504
真的很	-505
点菜	-506
烧烤	-507
明显	-508
要的	-509
是在	-510
等了	-511
他们家	-512
太多	-513
不了	-514
看见	-515
孩子	-516
还会	-517
鸡蛋	-518
加上	-519
...	-520
过了	-521
不好吃	-522
····	-523
原因	-524
粉丝	-525
唯一	-526
芒果	-527
不得	-528
甜品	-529
玉米	-530
果然	-531
爱吃	-532
一大	-533
那边	-534
烤肉	-535
回来	-536
有点小	-537
开了	-538
等等	-539
红烧	-540
点了一	-541
还是蛮	-542
店面	-543
炒饭	-544
到的	-545
鱼头	-546
漂亮	-547
一定要	-548
很嫩	-549
一看	-550
不用	-551
过的	-552
浓郁	-553
还蛮	-554
整个	-555
平时	-556
in	-557
用的	-558
味道很	-559
位子	-560
超市	-561
下去	-562
机会	-563
内容	-564
的样子	-565
划算	-566
锅底	-567
红豆	-568
清淡	-569
打包	-570
了一个	-571
半天	-572
虾仁	-573
说的	-574
茄子	-575
花生	-576
▁环境	-577
种类	-578
也挺	-579
还挺	-580
电影	-581
中国	-582
不喜欢	-583
可爱	-584
肚子	-585
小吃	-586
简单	-587
丰富	-588
看上去	-589
下面	-590
元的	-591
评价	-592
坐在	-593
店的	-594
自己的	-595
看起来	-596
房间	-597
番茄	-598
一杯	-599
难吃	-600
二楼	-601
生日	-602
学生	-603
···	-604
网上	-605
只要	-606
馄饨	-607
顾客	-608
颜色	-609
打折	-610
少了	-611
嘿嘿	-612
周末	-613
一口	-614
说了	-615
鲜美	-616
他们的	-617
白菜	-618
牛蛙	-619
香味	-620
的了	-621
包装	-622
放在	-623
凉菜	-624
尤其是	-625
就没	-626
铁板	-627
▁大	-628
一样的	-629
好像是	-630
这家的	-631
给我们	-632
一种	-633
这本书	-634
还是比较	-635
包间	-636
主要是	-637
▁是	-638
精致	-639
食物	-640
的我	-641
很一般	-642
也很好	-643
特价	-644
▁小	-645
的就是	-646
停车	-647
卫生	-648
找到	-649
▁哈哈	-650
饺子	-651
........	-652
关系	-653
了我	-654
下的	-655
听说	-656
肥牛	-657
开心	-658
水煮	-659
准备	-660
很小	-661
开的	-662
看来	-663
接受	-664
店员	-665
和朋友	-666
贵的	-667
最喜欢	-668
也可以	-669
▁好	-670
告诉	-671
这是	-672
再去	-673
不上	-674
盘子	-675
价位	-676
决定	-677
南瓜	-678
就会	-679
自然	-680
忘记	-681
类似	-682
了吧	-683
一块	-684
我想	-685
你们	-686
推荐的	-687
座位	-688
后面	-689
中间	-690
似乎	-691
我说	-692
都不错	-693
了很多	-694
酸菜	-695
也比较	-696
拼盘	-697
手机	-698
三个	-699
至于	-700
特别的	-701
就可以	-702
产品	-703
服务生	-704
美食	-705
人多	-706
很不	-707
蘑菇	-708
慢慢	-709
照片	-710
一般的	-711
没有什么	-712
学校	-713
越来	-714
还是挺	-715
主要	-716
据说	-717
也许	-718
家里	-719
拌饭	-720
会员	-721
一层	-722
越来越	-723
那家	-724
▁其实	-725
没吃	-726
下了	-727
设计	-728
点了个	-729
色拉	-730
最好	-731
米线	-732
清楚	-733
er	-734
的不	-735
干锅	-736
石锅	-737
聊天	-738
吃得	-739
刚好	-740
金针	-741
算了	-742
实话	-743
去吃的	-744
相对	-745
每个	-746
整体	-747
经过	-748
鱿鱼	-749
有很多	-750
聚会	-751
总的	-752
入口	-753
夏天	-754
特别是	-755
酸辣	-756
情况	-757
五花	-758
生活	-759
优惠券	-760
做得	-761
油腻	-762
包房	-763
肉质	-764
的确	-765
人气	-766
龙虾	-767
不像	-768
满足	-769
还是可以	-770
▁虽然	-771
师傅	-772
家常	-773
来吃	-774
至少	-775
好几	-776
一会	-777
进门	-778
方面	-779
肉的	-780
偶尔	-781
话说	-782
式的	-783
本人	-784
烤鸭	-785
老板娘	-786
骨头	-787
每天	-788
端上来	-789
黄瓜	-790
作为	-791
解决	-792
调料	-793
▁以前	-794
披萨	-795
▁说	-796
属于	-797
年糕	-798
奇怪	-799
总体来说	-800
选了	-801
▁今天	-802
人员	-803
外卖	-804
吸引	-805
面条	-806
一共	-807
的好吃	-808
心情	-809
路上	-810
冰激	-811
那样	-812
帮我	-813
啤酒	-814
首先	-815
an	-816
很快	-817
搭配	-818
金针菇	-819
掉了	-820
本身	-821
他的	-822
提前	-823
送的	-824
走了	-825
丸子	-826
抹茶	-827
对面	-828
那么多	-829
▁▁	-830
芝麻	-831
总的来说	-832
也蛮	-833
▁去	-834
成了	-835
▁没有	-836
刺身	-837
我和	-838
也不是	-839
别人	-840
生菜	-841
也不会	-842
注意	-843
好喝	-844
拉面	-845
一盘	-846
的一个	-847
店家	-848
鱼片	-849
布丁	-850
所有	-851
安静	-852
主食	-853
所谓	-854
的价格	-855
一边	-856
结账	-857
的朋友	-858
鱼肉	-859
脆的	-860
韩国	-861
广场	-862
香的	-863
等位	-864
忘了	-865
沙发	-866
爽口	-867
包子	-868
▁现在	-869
酸奶	-870
on	-871
▁服务员	-872
▁还是	-873
享受	-874
老师	-875
都在	-876
带着	-877
想象	-878
第二次	-879
地道	-880
每次去	-881
用了	-882
周围	-883
个人觉得	-884
有时候	-885
吃了一	-886
高的	-887
事情	-888
酱油	-889
点了一个	-890
胃口	-891
柠檬	-892
不知	-893
感觉很	-894
不住	-895
厨师	-896
简直	-897
很好的	-898
MM	-899
就要	-900
习惯	-901
冰激凌	-902
叉烧	-903
▁没	-904
过程	-905
比如	-906
两次	-907
完了	-908
es	-909
冰淇	-910
吃着	-911
甜甜的	-912
比较多	-913
▁呵呵	-914
菠萝	-915
▁这家店	-916
还能	-917
发票	-918
全部	-919
一楼	-920
元一	-921
了下	-922
热菜	-923
很足	-924
大厅	-925
我喜欢	-926
卓越	-927
▁然后	-928
水平	-929
这点	-930
还有一个	-931
糯米	-932
就有	-933
▁第一次	-934
豆浆	-935
▁要	-936
我也	-937
好久	-938
看的	-939
认为	-940
才能	-941
开业	-942
太多了	-943
阿姨	-944
十分	-945
配菜	-946
就去	-947
冬天	-948
小菜	-949
牌子	-950
相比	-951
五花肉	-952
的时间	-953
浪费	-954
几天	-955
不一样	-956
热的	-957
真心	-958
青菜	-959
非常好	-960
味道一般	-961
一人	-962
便宜的	-963
不行	-964
电视	-965
专业	-966
品牌	-967
晚饭	-968
合适	-969
很多人	-970
我们的	-971
很是	-972
如此	-973
个头	-974
料理	-975
味道还不错	-976
香菇	-977
点半	-978
亚马	-979
健康	-980
光顾	-981
突然	-982
办法	-983
一天	-984
东北	-985
一小	-986
经理	-987
是因为	-988
满了	-989
比较喜欢	-990
是很	-991
郁闷	-992
亚马逊	-993
冰淇淋	-994
的环境	-995
清爽	-996
甜点	-997
一点点	-998
he	-999
快餐	-1000
是什么	-1001
还没有	-1002
影响	-1003
老妈	-1004
食堂	-1005
花了	-1006
下班	-1007
放了	-1008
全是	-1009
像是	-1010
在这	-1011
做法	-1012
▁朋友	-1013
考虑	-1014
才知道	-1015
烤鱼	-1016
非常的	-1017
嫩的	-1018
给你	-1019
会有	-1020
哪里	-1021
▁也	-1022
还真	-1023
造型	-1024
味道也	-1025
▁这家	-1026
空调	-1027
公园	-1028
作者	-1029
▁-	-1030
还在	-1031
▁人	-1032
提供	-1033
比较好	-1034
在一起	-1035
早上	-1036
大家都	-1037
不敢	-1038
小店	-1039
的服务	-1040
打电话	-1041
不想	-1042
分店	-1043
鳗鱼	-1044
酱汁	-1045
想想	-1046
没有了	-1047
猪肉	-1048
就能	-1049
汤汁	-1050
到这里	-1051
请客	-1052
新鲜的	-1053
其中	-1054
经典	-1055
酸酸	-1056
饱了	-1057
世界	-1058
点多	-1059
木耳	-1060
小笼	-1061
泡菜	-1062
都可以	-1063
地铁	-1064
还有个	-1065
不是很多	-1066
不知道是不是	-1067
▁最	-1068
继续	-1069
LG	-1070
▁那	-1071
因为是	-1072
▁如果	-1073
而已	-1074
其它	-1075
都能	-1076
马上	-1077
楼下	-1078
不然	-1079
有一个	-1080
吃完了	-1081
川菜	-1082
楼上	-1083
传统	-1084
ar	-1085
回去	-1086
关键	-1087
味儿	-1088
段时间	-1089
兴趣	-1090
▁昨天	-1091
聚餐	-1092
任何	-1093
出了	-1094
牛奶	-1095
▁服务	-1096
▁价格	-1097
营业	-1098
▁上	-1099
使用	-1100
让我们	-1101
有机会	-1102
有特色	-1103
只好	-1104
挺好的	-1105
不说	-1106
金枪	-1107
▁,	-1108
我在	-1109
不足	-1110
▁本来	-1111
冷菜	-1112
的肉	-1113
蛋黄	-1114
早餐	-1115
预约	-1116
牛腩	-1117
姑娘	-1118
隔壁	-1119
不出	-1120
样的	-1121
心里	-1122
味道还可以	-1123
配上	-1124
图片	-1125
是一个	-1126
不起	-1127
午餐	-1128
音乐	-1129
的口感	-1130
半个	-1131
不吃	-1132
为主	-1133
我还是	-1134
女生	-1135
商场	-1136
▁一个	-1137
▁从	-1138
体验	-1139
以及	-1140
一桌	-1141
喝了	-1142
也就是	-1143
▁后来	-1144
的老	-1145
▁点了	-1146
我都	-1147
说实话	-1148
卖相	-1149
一张	-1150
一半	-1151
再来	-1152
▁结果	-1153
大众	-1154
▁最后	-1155
年前	-1156
烤的	-1157
休息	-1158
BF	-1159
第二天	-1160
会员卡	-1161
▁里面	-1162
也不知道	-1163
特意	-1164
扇贝	-1165
专门	-1166
给力	-1167
的就	-1168
一条	-1169
她们	-1170
肉丝	-1171
到位	-1172
比起	-1173
▁可以	-1174
热闹	-1175
名的	-1176
化妆	-1177
顺便	-1178
很新鲜	-1179
出的	-1180
正宗的	-1181
很舒服	-1182
东东	-1183
是不	-1184
玻璃	-1185
酱料	-1186
味道很好	-1187
芥末	-1188
很入味	-1189
换了	-1190
原价	-1191
很鲜	-1192
系列	-1193
适中	-1194
麻辣烫	-1195
下午茶	-1196
好大	-1197
按摩	-1198
口味的	-1199
小姐	-1200
____	-1201
洋葱	-1202
▁又	-1203
的书	-1204
金枪鱼	-1205
单位	-1206
在那里	-1207
太大	-1208
区别	-1209
小小的	-1210
生煎	-1211
米粉	-1212
想去	-1213
告知	-1214
一开始	-1215
也要	-1216
期待	-1217
的那	-1218
说说	-1219
包括	-1220
医院	-1221
红烧肉	-1222
自助餐	-1223
也很好吃	-1224
才发现	-1225
两种	-1226
上班	-1227
鹅肝	-1228
声音	-1229
菜量	-1230
台湾	-1231
▁一直	-1232
香辣	-1233
杯子	-1234
死了	-1235
口水	-1236
值得一	-1237
大利	-1238
制的	-1239
OK	-1240
出现	-1241
在里面	-1242
淡的	-1243
▁吃	-1244
大学	-1245
服务员说	-1246
具体	-1247
的态度	-1248
培根	-1249
从来	-1250
还是可以的	-1251
都说	-1252
食品	-1253
有什么	-1254
外面的	-1255
个菜	-1256
水煮鱼	-1257
这么多	-1258
新的	-1259
那里的	-1260
鸡汤	-1261
之一	-1262
前面	-1263
了一份	-1264
送了	-1265
发型	-1266
中规	-1267
还不	-1268
就觉得	-1269
评论	-1270
了一点	-1271
浓的	-1272
做了	-1273
长的	-1274
当天	-1275
中规中	-1276
故事	-1277
似的	-1278
没啥	-1279
深刻	-1280
如何	-1281
甚至	-1282
也算	-1283
对了	-1284
大多	-1285
▁有点	-1286
以为是	-1287
惊喜	-1288
脆脆的	-1289
叫了	-1290
摄影	-1291
缘故	-1292
强烈	-1293
快的	-1294
打算	-1295
正常	-1296
购物	-1297
的位置	-1298
进去了	-1299
不腻	-1300
香港	-1301
食欲	-1302
饭点	-1303
逛街	-1304
蛋挞	-1305
▁再	-1306
我还	-1307
意大利	-1308
生的	-1309
包厢	-1310
不是很好	-1311
▁看	-1312
的那个	-1313
鸡排	-1314
更加	-1315
仔细	-1316
挺好	-1317
拿到	-1318
是最	-1319
买单	-1320
普通的	-1321
品质	-1322
并且	-1323
感受	-1324
食材	-1325
很高	-1326
出去	-1327
所以就	-1328
够了	-1329
年的	-1330
主动	-1331
三个人	-1332
榴莲	-1333
▁这里	-1334
不怎么样	-1335
特地	-1336
鱼丸	-1337
开在	-1338
一个小	-1339
贵了	-1340
历史	-1341
我家	-1342
传说	-1343
这一	-1344
品尝	-1345
空间	-1346
曾经	-1347
每人	-1348
羊排	-1349
能吃	-1350
必须	-1351
气氛	-1352
人均	-1353
中规中矩	-1354
看到了	-1355
档次	-1356
满满	-1357
就很	-1358
旁边的	-1359
随便吃吃	-1360
也会	-1361
而是	-1362
无论	-1363
不高	-1364
同时	-1365
点了一份	-1366
可口	-1367
▁肉	-1368
明白	-1369
▁前	-1370
▁每次	-1371
就好了	-1372
一点都不	-1373
iz	-1374
风味	-1375
不管	-1376
价值	-1377
一只	-1378
原味	-1379
嘻嘻	-1380
电脑	-1381
鸡腿	-1382
▁之前	-1383
刚刚	-1384
离家	-1385
显得	-1386
份量	-1387
没人	-1388
重要	-1389
的口味	-1390
▁老	-1391
甜甜	-1392
三鲜	-1393
无语	-1394
挺好吃的	-1395
爸爸	-1396
理解	-1397
边上	-1398
就像	-1399
配料	-1400
交通	-1401
石锅拌饭	-1402
不容易	-1403
很热情	-1404
免费的	-1405
猪排	-1406
胡椒	-1407
午饭	-1408
▁跟	-1409
厨房	-1410
餐馆	-1411
上菜速度	-1412
店内	-1413
我要	-1414
重新	-1415
我们就	-1416
坐下	-1417
草莓	-1418
用餐	-1419
▁喜欢	-1420
星期	-1421
了一次	-1422
一顿	-1423
日式	-1424
吃的时候	-1425
是有	-1426
灯光	-1427
奶酪	-1428
块的	-1429
少的	-1430
炸的	-1431
进来	-1432
▁都	-1433
实际	-1434
凉拌	-1435
惊艳	-1436
天气	-1437
也好	-1438
生蚝	-1439
它的	-1440
市场	-1441
蛮好的	-1442
菜式	-1443
真正	-1444
西瓜	-1445
必点	-1446
麻烦	-1447
还真是	-1448
商务	-1449
有时	-1450
子里	-1451
地下	-1452
想要	-1453
之间	-1454
是用	-1455
不过我	-1456
~~~~~~~~~~~~~~~~	-1457
珍珠	-1458
想起	-1459
提醒	-1460
打开	-1461
许多	-1462
边的	-1463
遗憾	-1464
十几	-1465
相信	-1466
素菜	-1467
有点像	-1468
酸梅	-1469
的要	-1470
南京	-1471
的一家店	-1472
温馨	-1473
点餐	-1474
安排	-1475
苹果	-1476
给的	-1477
没吃过	-1478
蓝莓	-1479
就更	-1480
之类	-1481
中心	-1482
开胃	-1483
总觉得	-1484
问了	-1485
味道都	-1486
预定	-1487
无法	-1488
不知道是	-1489
餐具	-1490
DP	-1491
买过	-1492
不太好	-1493
可乐	-1494
快递	-1495
▁中午	-1496
冲着	-1497
书的	-1498
羊肉串	-1499
za	-1500
姐姐	-1501
选择了	-1502
大爱	-1503
筷子	-1504
朋友说	-1505
好吃了	-1506
游戏	-1507
电梯	-1508
鲍鱼	-1509
汉堡	-1510
年轻	-1511
上面的	-1512
客服	-1513
杏仁	-1514
拉米	-1515
一般吧	-1516
型的	-1517
口的	-1518
一斤	-1519
依然	-1520
你的	-1521
嚼劲	-1522
涨价	-1523
云吞	-1524
or	-1525
小时候	-1526
去买	-1527
了一些	-1528
、、	-1529
砂锅	-1530
很难	-1531
有了	-1532
山药	-1533
到底	-1534
薯条	-1535
老婆	-1536
过瘾	-1537
还不如	-1538
一位	-1539
也很不错	-1540
izza	-1541
的吧	-1542
点的是	-1543
皮蛋	-1544
菜的味道	-1545
这道菜	-1546
晚餐	-1547
鳕鱼	-1548
以上	-1549
人都	-1550
可怜	-1551
喝的	-1552
同样	-1553
它家的	-1554
▁觉得	-1555
怎么样	-1556
我不	-1557
不会再	-1558
幸福	-1559
锅贴	-1560
的原因	-1561
给人	-1562
材料	-1563
太甜	-1564
给了	-1565
很浓	-1566
这家店的	-1567
油条	-1568
提拉米	-1569
还点了	-1570
商品	-1571
连锁	-1572
晚了	-1573
布置	-1574
认识	-1575
非常好吃	-1576
en	-1577
两份	-1578
不贵	-1579
更是	-1580
找了	-1581
的汤	-1582
娃娃	-1583
装的	-1584
椒盐	-1585
好在	-1586
怀念	-1587
个小	-1588
而言	-1589
~~~~~	-1590
ic	-1591
提拉米苏	-1592
必胜	-1593
又是	-1594
收费	-1595
说明	-1596
木瓜	-1597
味道也不错	-1598
外国	-1599
牛舌	-1600
估计是	-1601
出来了	-1602
土豆泥	-1603
塑料	-1604
这个菜	-1605
和我	-1606
第三	-1607
很大的	-1608
蛮好吃的	-1609
拿了	-1610
总体感觉	-1611
的最	-1612
酸菜鱼	-1613
ho	-1614
期间	-1615
鸡丁	-1616
不便宜	-1617
实惠的	-1618
▁可是	-1619
小小	-1620
---	-1621
人很多	-1622
儿的	-1623
文化	-1624
黑椒	-1625
在那	-1626
韭菜	-1627
负责	-1628
嘴里	-1629
也不是很	-1630
环境不错	-1631
果汁	-1632
细腻	-1633
必胜客	-1634
就没有	-1635
气的	-1636
宝宝	-1637
亲切	-1638
见到	-1639
拍照	-1640
味道还行	-1641
▁比较	-1642
记忆	-1643
▁刚	-1644
凤爪	-1645
更好	-1646
海带	-1647
co	-1648
不小	-1649
炒菜	-1650
每次都	-1651
来过	-1652
比较少	-1653
因为我	-1654
▁比	-1655
它家	-1656
al	-1657
收到	-1658
虾饺	-1659
广告	-1660
招呼	-1661
人不多	-1662
收银	-1663
明治	-1664
广州	-1665
宽敞	-1666
能够	-1667
怀疑	-1668
好象	-1669
走到	-1670
火腿	-1671
明明	-1672
冷面	-1673
的服务员	-1674
两天	-1675
微辣	-1676
差了	-1677
新开	-1678
火候	-1679
的地	-1680
担心	-1681
一般了	-1682
要去	-1683
错了	-1684
馒头	-1685
忘记了	-1686
木有	-1687
早就	-1688
处理	-1689
要吃	-1690
经济	-1691
出品	-1692
的时候就	-1693
饿了	-1694
附近的	-1695
it	-1696
软的	-1697
第一次吃	-1698
三明治	-1699
原本	-1700
▁于是	-1701
很近	-1702
▁太	-1703
说话	-1704
拿着	-1705
挺不错的	-1706
失败	-1707
▁反正	-1708
上来了	-1709
这个地方	-1710
美的	-1711
医生	-1712
手撕	-1713
就好	-1714
意面	-1715
标准	-1716
这款	-1717
让你	-1718
起码	-1719
▁不知道	-1720
牛柳	-1721
大部分	-1722
找不到	-1723
放的	-1724
香蕉	-1725
他说	-1726
家庭	-1727
情侣	-1728
学习	-1729
赶上	-1730
两人	-1731
农家	-1732
真系	-1733
pizza	-1734
的面	-1735
小料	-1736
水准	-1737
门面	-1738
淡淡的	-1739
▁都是	-1740
也都	-1741
▁【	-1742
的量	-1743
st	-1744
很好喝	-1745
凑合	-1746
的关系	-1747
好几次	-1748
卖的	-1749
FC	-1750
胡萝卜	-1751
着吃	-1752
家常菜	-1753
▁那个	-1754
差点	-1755
字号	-1756
调味	-1757
清汤	-1758
带我	-1759
研究	-1760
好好好好	-1761
特点	-1762
牛肉面	-1763
好吧	-1764
对我	-1765
不动	-1766
酒水	-1767
香肠	-1768
年了	-1769
很不错的	-1770
回味	-1771
最好的	-1772
PS	-1773
清蒸	-1774
香草	-1775
上网	-1776
辣酱	-1777
一片	-1778
了解	-1779
饼干	-1780
客户	-1781
累了	-1782
来这	-1783
在家	-1784
我们是	-1785
后悔	-1786
绿豆	-1787
制作	-1788
麻酱	-1789
也很多	-1790
现在的	-1791
婚宴	-1792
就开始	-1793
靠窗	-1794
一句	-1795
▁非常	-1796
核桃	-1797
熟悉	-1798
在我	-1799
栗子	-1800
根据	-1801
买一	-1802
装饰	-1803
剩下	-1804
酒吧	-1805
只能说	-1806
服务员态度	-1807
是要	-1808
太小	-1809
头的	-1810
路的	-1811
没办法	-1812
买了一	-1813
红酒	-1814
刷卡	-1815
四个	-1816
很干净	-1817
进了	-1818
个人感觉	-1819
鲶鱼	-1820
结婚	-1821
打了	-1822
既然	-1823
楼的	-1824
有没有	-1825
结束	-1826
菜都	-1827
欢迎	-1828
缺点	-1829
糖醋	-1830
令人	-1831
反而	-1832
即使	-1833
价格也	-1834
还是有	-1835
玩的	-1836
几家	-1837
很差	-1838
水晶	-1839
表演	-1840
▁不是	-1841
等待	-1842
难得	-1843
▁看到	-1844
营养	-1845
身体	-1846
有多	-1847
我地	-1848
十足	-1849
KFC	-1850
的问题	-1851
还算可以	-1852
那时候	-1853
下饭	-1854
鸳鸯	-1855
一直在	-1856
▁只是	-1857
▁晚上	-1858
有意思	-1859
很赞	-1860
at	-1861
外的	-1862
小炒	-1863
▁汤	-1864
吃个	-1865
眼睛	-1866
蟹粉	-1867
还是很不错的	-1868
的都	-1869
四个人	-1870
豆皮	-1871
洗手	-1872
大堂	-1873
无奈	-1874
系统	-1875
意的	-1876
难道	-1877
忍不住	-1878
也能	-1879
味道的	-1880
▁到	-1881
前台	-1882
也没什么	-1883
叫什么	-1884
爱的	-1885
西餐	-1886
去吃了	-1887
技术	-1888
里面还有	-1889
半价	-1890
主打	-1891
▁菜	-1892
否则	-1893
等到	-1894
机器	-1895
▁口味	-1896
香锅	-1897
最喜欢的	-1898
le	-1899
吃点	-1900
好看	-1901
一点也不	-1902
吃多了	-1903
有一次	-1904
都觉得	-1905
婚礼	-1906
回忆	-1907
解释	-1908
豆角	-1909
没了	-1910
冷的	-1911
▁东西	-1912
合理	-1913
人了	-1914
开车	-1915
工作人员	-1916
厚的	-1917
牛仔	-1918
很多的	-1919
了些	-1920
泡芙	-1921
功夫	-1922
是否	-1923
▁量	-1924
桌上	-1925
管理	-1926
旅游	-1927
出版	-1928
程度	-1929
········	-1930
叫一个	-1931
看过	-1932
店里的	-1933
烧饼	-1934
再加	-1935
▁t	-1936
听到	-1937
吃的很	-1938
变成	-1939
一锅	-1940
符合	-1941
就算	-1942
▁对	-1943
就说	-1944
受不了	-1945
鱼香	-1946
我很喜欢	-1947
住在	-1948
很适合	-1949
饮品	-1950
鱼的	-1951
▁我觉得	-1952
配的	-1953
都比较	-1954
严重	-1955
剁椒	-1956
参加	-1957
实在太	-1958
厕所	-1959
招牌菜	-1960
家人	-1961
恭维	-1962
所有的	-1963
折扣	-1964
都好	-1965
老外	-1966
设施	-1967
四川	-1968
吃的是	-1969
▁挺	-1970
神马	-1971
天天	-1972
想着	-1973
选的	-1974
晓得	-1975
麦当	-1976
据说是	-1977
香菜	-1978
帮我们	-1979
HO	-1980
厉害	-1981
来到	-1982
乎乎	-1983
其实就是	-1984
汤包	-1985
关于	-1986
定的	-1987
心理	-1988
MB	-1989
动物	-1990
垃圾	-1991
了一会	-1992
绿茶	-1993
方式	-1994
但是我	-1995
早饭	-1996
菌菇	-1997
里有	-1998
按照	-1999
就知道	-2000
当地	-2001
款式	-2002
菠菜	-2003
ok	-2004
哈哈哈	-2005
眼镜	-2006
葡萄	-2007
有点小贵	-2008
挺多的	-2009
性的	-2010
她说	-2011
鸭子	-2012
一股	-2013
辣味	-2014
去那里	-2015
一道	-2016
逛逛	-2017
好处	-2018
ing	-2019
份的	-2020
有点儿	-2021
▁真是	-2022
很便宜	-2023
必点的	-2024
杭州	-2025
不及	-2026
周六	-2027
和老公	-2028
大概是	-2029
也不算	-2030
偏甜	-2031
目前	-2032
▁最近	-2033
还有就是	-2034
che	-2035
瘦肉	-2036
保持	-2037
我自己	-2038
写的	-2039
不可	-2040
盒子	-2041
送一	-2042
水的	-2043
蛮好	-2044
第一个	-2045
放心	-2046
了几	-2047
地段	-2048
今年	-2049
接待	-2050
老爸	-2051
不是特别	-2052
外地	-2053
最好吃的	-2054
人少	-2055
永远	-2056
,,,	-2057
商家	-2058
哪个	-2059
酸梅汤	-2060
▁C	-2061
包菜	-2062
多久	-2063
大小	-2064
帮忙	-2065
的有	-2066
面粉	-2067
re	-2068
一起去的	-2069
馆子	-2070
不同的	-2071
很好吃的	-2072
周到	-2073
不懂	-2074
▁真	-2075
麦当劳	-2076
出门	-2077
行了	-2078
上桌	-2079
长时间	-2080
坏了	-2081
有点咸	-2082
吃饭的	-2083
炒的	-2084
耐心	-2085
烧的	-2086
买东西	-2087
肉松	-2088
女人	-2089
鲜嫩	-2090
要等	-2091
青椒	-2092
点单	-2093
▁一般	-2094
汤底	-2095
不咋	-2096
反应	-2097
还行吧	-2098
依旧	-2099
找个	-2100
并不	-2101
风景	-2102
德基	-2103
▁真的	-2104
男朋友	-2105
豆芽	-2106
so	-2107
▁先	-2108
茶水	-2109
水饺	-2110
ese	-2111
那就	-2112
都差不多	-2113
饭馆	-2114
家店	-2115
地理	-2116
方法	-2117
她的	-2118
肥肉	-2119
的小店	-2120
还是要	-2121
定了	-2122
刚开始	-2123
路边	-2124
很漂亮	-2125
干净的	-2126
完美	-2127
不好意思	-2128
可以去	-2129
和小	-2130
半小时	-2131
吃的东西	-2132
el	-2133
导致	-2134
柜台	-2135
但是味道	-2136
还算不错	-2137
送货	-2138
凉的	-2139
▁这次	-2140
几块	-2141
拥挤	-2142
遇到	-2143
游泳	-2144
被告知	-2145
号线	-2146
不是很大	-2147
还说	-2148
距离	-2149
第一次去	-2150
▁可能	-2151
刚刚好	-2152
得到	-2153
有点不	-2154
我对	-2155
这个是	-2156
光了	-2157
关门	-2158
煲仔	-2159
拍摄	-2160
坐着	-2161
之外	-2162
▁烤	-2163
千万	-2164
不清	-2165
大了	-2166
那是	-2167
满意的	-2168
回事	-2169
肯德基	-2170
偏咸	-2171
门口的	-2172
也不贵	-2173
美容	-2174
舒适	-2175
感谢	-2176
鲈鱼	-2177
玫瑰	-2178
齐全	-2179
上有	-2180
基本都是	-2181
成都	-2182
~【	-2183
最低	-2184
项目	-2185
过生日	-2186
味精	-2187
了一圈	-2188
油的	-2189
见过	-2190
馅料	-2191
也还可以	-2192
购买	-2193
▁下次	-2194
巴克	-2195
腥味	-2196
几个菜	-2197
劲道	-2198
坚持	-2199
赶紧	-2200
开张	-2201
不推荐	-2202
宫保	-2203
不在	-2204
孜然	-2205
星级	-2206
百叶	-2207
每个人	-2208
酸甜	-2209
不得了	-2210
调的	-2211
蜂蜜	-2212
▁S	-2213
一圈	-2214
找到了	-2215
城市	-2216
吃不完	-2217
汤的	-2218
太少了	-2219
觉得很	-2220
▁你	-2221
▁想	-2222
建筑	-2223
艺术	-2224
重的	-2225
经常去	-2226
二十	-2227
支持	-2228
所谓的	-2229
到处	-2230
经历	-2231
告诉我	-2232
椅子	-2233
本来想	-2234
经营	-2235
可见	-2236
有种	-2237
貌似是	-2238
装修的	-2239
本帮	-2240
都很好	-2241
碰到	-2242
到现在	-2243
酱面	-2244
黄鱼	-2245
美国	-2246
联系	-2247
芝士蛋糕	-2248
天的	-2249
上来的	-2250
星巴克	-2251
放弃	-2252
上海的	-2253
怪怪	-2254
氛围	-2255
都系	-2256
鸭血	-2257
印刷	-2258
外皮	-2259
茶树	-2260
行的	-2261
钱的	-2262
不知道为什么	-2263
不仅	-2264
RMB	-2265
一起去	-2266
最好吃	-2267
火车	-2268
就去了	-2269
不停	-2270
几个人	-2271
用的是	-2272
通过	-2273
不过味道	-2274
鱼翅	-2275
新疆	-2276
婚纱	-2277
社会	-2278
还比较	-2279
肠粉	-2280
as	-2281
就被	-2282
大排	-2283
独特	-2284
环境很好	-2285
就餐	-2286
蒜蓉	-2287
团购的	-2288
一下子	-2289
▁只	-2290
is	-2291
次了	-2292
愿意	-2293
纠结	-2294
老字号	-2295
时尚	-2296
时代	-2297
重点	-2298
个小时	-2299
蛮多的	-2300
总结	-2301
双皮	-2302
没法	-2303
▁其他	-2304
的一道菜	-2305
外加	-2306
成功	-2307
炒面	-2308
还有点	-2309
吃饱	-2310
男生	-2311
七八	-2312
新开的	-2313
确实不错	-2314
最多	-2315
供应	-2316
功能	-2317
一本	-2318
成的	-2319
空气	-2320
关键是	-2321
就到了	-2322
大虾	-2323
相当的	-2324
很方便	-2325
锅里	-2326
接着	-2327
时的	-2328
后的	-2329
慕名	-2330
奶味	-2331
看电影	-2332
证明	-2333
楼梯	-2334
大盘	-2335
红茶	-2336
因此	-2337
多点	-2338
事先	-2339
茶树菇	-2340
这个价格	-2341
烧鹅	-2342
西兰	-2343
鸡块	-2344
▁里面的	-2345
西安	-2346
▁不错	-2347
少了点	-2348
员工	-2349
说不	-2350
可爱的	-2351
吃什么	-2352
早点	-2353
▁来	-2354
了就	-2355
常常	-2356
我很	-2357
进入	-2358
一会儿	-2359
之下	-2360
改进	-2361
我去	-2362
都挺	-2363
的缘故	-2364
创意	-2365
娃娃菜	-2366
还可以吧	-2367
不见	-2368
不是太	-2369
冷清	-2370
最大的	-2371
还有很多	-2372
个大	-2373
味道好	-2374
豆沙	-2375
了半天	-2376
传说中的	-2377
无限	-2378
港式	-2379
网站	-2380
▁他	-2381
宣传	-2382
一路	-2383
吃过的	-2384
相机	-2385
美女	-2386
西红	-2387
等着	-2388
实的	-2389
帮你	-2390
讲究	-2391
是比较	-2392
小贵	-2393
公交	-2394
透明	-2395
▁三	-2396
我们点了	-2397
味千	-2398
很有特色	-2399
有所	-2400
中意	-2401
还不错的	-2402
保证	-2403
弹性	-2404
恶心	-2405
发展	-2406
护理	-2407
西红柿	-2408
拌面	-2409
真的不错	-2410
mm	-2411
鲜的	-2412
单点	-2413
自从	-2414
现场	-2415
▁上次	-2416
天津	-2417
人在	-2418
把我	-2419
双皮奶	-2420
火锅店	-2421
也不多	-2422
差的	-2423
里面是	-2424
章鱼	-2425
做好	-2426
诱人	-2427
住了	-2428
简单的	-2429
去年	-2430
不值	-2431
啥的	-2432
▁以后	-2433
鲜虾	-2434
怎么说	-2435
屏幕	-2436
实在是太	-2437
舒服的	-2438
也算是	-2439
▁用	-2440
才是	-2441
甜味	-2442
饭的	-2443
茶餐厅	-2444
还是不错	-2445
说要	-2446
没事	-2447
▁看了	-2448
阳光	-2449
版的	-2450
喝酒	-2451
▁我是	-2452
外婆	-2453
认真	-2454
不是很喜欢	-2455
马路	-2456
臭豆腐	-2457
意见	-2458
▁当然	-2459
唱歌	-2460
人民	-2461
重庆	-2462
一个大	-2463
别家	-2464
得去	-2465
螃蟹	-2466
焦糖	-2467
元一份	-2468
餐前	-2469
特色菜	-2470
宴请	-2471
耳机	-2472
再次	-2473
足的	-2474
写着	-2475
文字	-2476
不新鲜	-2477
提高	-2478
血旺	-2479
食客	-2480
虽然是	-2481
am	-2482
ou	-2483
了不少	-2484
▁口感	-2485
大大	-2486
地理位置	-2487
零食	-2488
脆皮	-2489
鲜味	-2490
更喜欢	-2491
我没	-2492
很容易	-2493
动作	-2494
好友	-2495
葱油	-2496
吃火锅	-2497
划算的	-2498
如果是	-2499
或是	-2500
都几	-2501
比较大	-2502
减肥	-2503
来着	-2504
周五	-2505
以前的	-2506
正在	-2507
推销	-2508
湘菜	-2509
犹豫	-2510
▁牛肉	-2511
素质	-2512
阅读	-2513
乌冬	-2514
西米	-2515
下面的	-2516
火爆	-2517
还是会	-2518
贴心	-2519
跟着	-2520
看完	-2521
装潢	-2522
不敢恭维	-2523
完全没有	-2524
无比	-2525
我的最爱	-2526
油炸	-2527
的情况	-2528
就想	-2529
发型师	-2530
原来是	-2531
都很不错	-2532
小排	-2533
过来的	-2534
白色	-2535
经验	-2536
讨厌	-2537
cheese	-2538
几种	-2539
翻译	-2540
滋味	-2541
的香	-2542
领班	-2543
的呢	-2544
很脆	-2545
▁老板	-2546
有点腻	-2547
的菜品	-2548
熟的	-2549
上下	-2550
买到	-2551
收拾	-2552
作品	-2553
知识	-2554
点的菜	-2555
男人	-2556
再加上	-2557
跟我	-2558
不辣	-2559
更多	-2560
单子	-2561
绝对是	-2562
号称	-2563
▁首先	-2564
摄影师	-2565
细节	-2566
虽说	-2567
搞活动	-2568
或许	-2569
过去了	-2570
清炒	-2571
在网上	-2572
嘈杂	-2573
外观	-2574
超过	-2575
太少	-2576
离开	-2577
对面的	-2578
无功	-2579
酸汤	-2580
菜单上	-2581
我喜欢的	-2582
并没有	-2583
形容	-2584
煲仔饭	-2585
还送	-2586
▁那天	-2587
薄薄	-2588
印度	-2589
黄金	-2590
点评上	-2591
▁这里的	-2592
事实	-2593
墙上	-2594
诱惑	-2595
好似	-2596
北方	-2597
远了	-2598
oo	-2599
不理	-2600
过年	-2601
领导	-2602
感动	-2603
冰沙	-2604
高档	-2605
心菜	-2606
日料	-2607
毛血旺	-2608
武汉	-2609
运动	-2610
还很	-2611
有一点	-2612
PI	-2613
一切	-2614
也不能	-2615
红色	-2616
味道很不错	-2617
赞一个	-2618
总共	-2619
一分	-2620
餐饮	-2621
日子	-2622
不断	-2623
其次	-2624
灰常	-2625
也许是	-2626
的小吃	-2627
来讲	-2628
苏州	-2629
▁他家	-2630
和同事	-2631
就点了	-2632
合算	-2633
混合	-2634
比较有	-2635
这本	-2636
强烈推荐	-2637
三种	-2638
结帐	-2639
吃过一次	-2640
特别好吃	-2641
想法	-2642
休闲	-2643
妹妹	-2644
肯定是	-2645
广东	-2646
表扬	-2647
组合	-2648
既往	-2649
热情的	-2650
地瓜	-2651
黄油	-2652
土豆丝	-2653
看得	-2654
要好	-2655
就把	-2656
显示	-2657
这个店	-2658
烤翅	-2659
▁总之	-2660
切成	-2661
手工	-2662
还是觉得	-2663
添加	-2664
足够	-2665
到是	-2666
呷哺	-2667
如既往	-2668
酥脆	-2669
宫保鸡丁	-2670
好吃啊	-2671
起来了	-2672
久了	-2673
放着	-2674
桂花	-2675
顿饭	-2676
过程中	-2677
放松	-2678
乳酪	-2679
发的	-2680
进行	-2681
无功无	-2682
两块	-2683
狮子	-2684
▁也是	-2685
香芋	-2686
也一般	-2687
咸的	-2688
说什么	-2689
不太喜欢	-2690
MS	-2691
软软的	-2692
hi	-2693
在外面	-2694
唔错	-2695
很甜	-2696
洗手间	-2697
浓浓的	-2698
没怎么	-2699
办了	-2700
在上海	-2701
搞笑	-2702
入口即	-2703
吃不了	-2704
积分	-2705
________	-2706
之处	-2707
夸张	-2708
手法	-2709
某人	-2710
猪手	-2711
女孩子	-2712
量的	-2713
靠近	-2714
▁他家的	-2715
买个	-2716
被我	-2717
高兴	-2718
大大的	-2719
▁每	-2720
慕斯	-2721
和其他	-2722
惬意	-2723
牛仔骨	-2724
粤菜	-2725
比较小	-2726
下单	-2727
卤肉	-2728
分别	-2729
存在	-2730
对比	-2731
老了	-2732
到最后	-2733
花园	-2734
自己去	-2735
四季	-2736
女孩	-2737
英文	-2738
回到	-2739
▁c	-2740
谢谢	-2741
很厚	-2742
杂志	-2743
没点	-2744
另一个	-2745
夹馍	-2746
▁记得	-2747
泰国	-2748
问服务员	-2749
ZA	-2750
却是	-2751
又有	-2752
得起	-2753
卫生间	-2754
也还不错	-2755
疙瘩	-2756
小姑娘	-2757
凉粉	-2758
精神	-2759
到我	-2760
路线	-2761
培训	-2762
而不腻	-2763
回答	-2764
居民	-2765
菜色	-2766
▁另外	-2767
店铺	-2768
不远	-2769
也不少	-2770
▁b	-2771
用料	-2772
不舒服	-2773
西兰花	-2774
感觉有点	-2775
月饼	-2776
海参	-2777
怎样	-2778
不对	-2779
酥皮	-2780
不爽	-2781
才有	-2782
拿铁	-2783
紫菜	-2784
▁可惜	-2785
朋友的	-2786
确实是	-2787
▁去过	-2788
▁很喜欢	-2789
云南	-2790
都吃	-2791
的活动	-2792
多小时	-2793
身上	-2794
春卷	-2795
再也不	-2796
面筋	-2797
定位	-2798
的一些	-2799
版本	-2800
的一样	-2801
多吃	-2802
要么	-2803
无意	-2804
什么时候	-2805
就来	-2806
买点	-2807
先生	-2808
很实惠	-2809
差别	-2810
几口	-2811
那叫一个	-2812
角落	-2813
配合	-2814
开门	-2815
要不	-2816
要比	-2817
清晰	-2818
所以我	-2819
新品	-2820
综合	-2821
白的	-2822
CO	-2823
着的	-2824
好几个	-2825
圣诞	-2826
有次	-2827
幸好	-2828
几样	-2829
超值	-2830
................	-2831
特殊	-2832
海底	-2833
不下	-2834
很特别	-2835
要了一个	-2836
都很好吃	-2837
宾馆	-2838
来看	-2839
情调	-2840
记得了	-2841
肉片	-2842
在北京	-2843
个月	-2844
番茄酱	-2845
国际	-2846
挺大的	-2847
的香味	-2848
榴莲酥	-2849
XX	-2850
切的	-2851
快乐	-2852
万达	-2853
肥肠	-2854
吧台	-2855
中式	-2856
如果你	-2857
消灭	-2858
操作	-2859
豆花	-2860
小食	-2861
是可以	-2862
又不	-2863
我看	-2864
留下	-2865
▁好像	-2866
无功无过	-2867
周边	-2868
好多人	-2869
面积	-2870
▁听	-2871
包的	-2872
这个名字	-2873
辣子	-2874
和大	-2875
▁书	-2876
加工	-2877
感冒	-2878
比以前	-2879
很喜欢吃	-2880
非常喜欢	-2881
尝了	-2882
过去的	-2883
赠送	-2884
要了个	-2885
询问	-2886
一瓶	-2887
门票	-2888
黑胡椒	-2889
的事情	-2890
▁~	-2891
名气	-2892
我感觉	-2893
▁就在	-2894
英语	-2895
再吃	-2896
三楼	-2897
太咸	-2898
▁原来	-2899
底下	-2900
基础	-2901
跑到	-2902
的套餐	-2903
▁哎	-2904
进去的	-2905
主菜	-2906
入口即化	-2907
周日	-2908
小碗	-2909
明亮	-2910
变化	-2911
一致	-2912
粉条	-2913
要说	-2914
路口	-2915
一进门	-2916
特别喜欢	-2917
找的	-2918
包饭	-2919
太阳	-2920
怪怪的	-2921
仙草	-2922
双拼	-2923
小心	-2924
再说	-2925
加点	-2926
立马	-2927
脆骨	-2928
想起来	-2929
▁可	-2930
腊肉	-2931
比较适合	-2932
客气	-2933
难吃的	-2934
海胆	-2935
芋头	-2936
▁吃了	-2937
店了	-2938
▁看着	-2939
这儿	-2940
▁B	-2941
通常	-2942
发现了	-2943
▁等	-2944
现代	-2945
冰的	-2946
里边	-2947
是大	-2948
读者	-2949
我一	-2950
口水鸡	-2951
元一个	-2952
炒年糕	-2953
特色的	-2954
吃下来	-2955
凉皮	-2956
椰汁	-2957
年代	-2958
▁T	-2959
想象中	-2960
一盆	-2961
皮肤	-2962
辛苦	-2963
特别好	-2964
特价菜	-2965
ad	-2966
▁地方	-2967
看了看	-2968
了很久	-2969
也不好	-2970
区域	-2971
尽管	-2972
最终	-2973
清新	-2974
太高	-2975
于是就	-2976
本地	-2977
包肉	-2978
粉丝汤	-2979
喝喝	-2980
还得	-2981
▁经常	-2982
不适合	-2983
高中	-2984
桌椅	-2985
意外	-2986
南方	-2987
比较好吃	-2988
弄得	-2989
一堆	-2990
烤串	-2991
要不是	-2992
夫妻	-2993
全家	-2994
物美	-2995
坐坐	-2996
勉强	-2997
冬瓜	-2998
精品	-2999
大多数	-3000
和一个	-3001
沟通	-3002
片的	-3003
恰到	-3004
才会	-3005
芹菜	-3006
的还是	-3007
盖浇	-3008
乎乎的	-3009
问我	-3010
不久	-3011
不好的	-3012
有点贵	-3013
差不多了	-3014
▁买	-3015
抱着	-3016
在大	-3017
的哦	-3018
一年	-3019
红薯	-3020
汁水	-3021
地点	-3022
懒得	-3023
是没有	-3024
走的时候	-3025
蜜汁	-3026
差距	-3027
我个人	-3028
豪华	-3029
错过	-3030
一如既往	-3031
乐福	-3032
送到	-3033
那时	-3034
涨价了	-3035
服务员的	-3036
有两	-3037
一家店	-3038
很像	-3039
面和	-3040
下雨	-3041
QQ	-3042
那次	-3043
开心的	-3044
发生	-3045
理论	-3046
吃好	-3047
硬的	-3048
结合	-3049
半个小时	-3050
我又	-3051
感觉不错	-3052
也太	-3053
煮的	-3054
红的	-3055
▁除了	-3056
温暖	-3057
期望	-3058
已经是	-3059
当年	-3060
腻了	-3061
发觉	-3062
那么好	-3063
白色的	-3064
两碗	-3065
室内	-3066
就吃	-3067
生鱼片	-3068
▁s	-3069
东方	-3070
上汤	-3071
泡椒	-3072
过于	-3073
价廉	-3074
加热	-3075
房子	-3076
ak	-3077
蛤蜊	-3078
音响	-3079
吃东西	-3080
酸酸的	-3081
去看	-3082
礼拜	-3083
运气	-3084
▁推荐	-3085
酒酿	-3086
图书	-3087
挺多	-3088
及时	-3089
呢度	-3090
嘴巴	-3091
蟹黄	-3092
露天	-3093
都还不错	-3094
冰箱	-3095
一起来	-3096
鲜榨	-3097
值得一提	-3098
环境一般	-3099
et	-3100
小孩	-3101
直到	-3102
吃不出	-3103
值得推荐	-3104
牛肉饭	-3105
了好多	-3106
桌子上	-3107
毕竟是	-3108
ap	-3109
▁香	-3110
难以	-3111
小朋友	-3112
偶们	-3113
电池	-3114
恰到好处	-3115
做成	-3116
的多	-3117
里脊	-3118
受欢迎	-3119
剩下的	-3120
国内	-3121
浓郁的	-3122
区的	-3123
自带	-3124
地道的	-3125
坐了	-3126
我只	-3127
试过	-3128
还是有点	-3129
儿子	-3130
试吃	-3131
半只	-3132
墨鱼	-3133
虾肉	-3134
就系	-3135
招牌的	-3136
橙汁	-3137
还想	-3138
感觉是	-3139
点儿	-3140
的事	-3141
圆子	-3142
大块	-3143
随意	-3144
绿色	-3145
上菜的	-3146
亲戚	-3147
我们都	-3148
▁面	-3149
改变	-3150
凉了	-3151
毕业	-3152
汤头	-3153
原味的	-3154
没什么人	-3155
▁D	-3156
几片	-3157
服装	-3158
豆豉	-3159
详细	-3160
一点的	-3161
鞋子	-3162
两杯	-3163
▁P	-3164
大碗	-3165
热气	-3166
这个味道	-3167
的质量	-3168
还有一些	-3169
看到的	-3170
了一口	-3171
成为	-3172
最低消费	-3173
▁店	-3174
物价	-3175
乳鸽	-3176
桌的	-3177
个么	-3178
看到有	-3179
服務	-3180
咸菜	-3181
太太	-3182
就这样	-3183
站在	-3184
北极	-3185
很棒	-3186
感觉就是	-3187
几年	-3188
去过一次	-3189
亮点	-3190
亲自	-3191
欣赏	-3192
推荐了	-3193
一行	-3194
女的	-3195
清香	-3196
▁当时	-3197
▁由于	-3198
▁估计	-3199
▁m	-3200
吃不惯	-3201
一百	-3202
能力	-3203
小说	-3204
可能是因为	-3205
饱满	-3206
的面包	-3207
▁她	-3208
感情	-3209
的名字	-3210
▁嘿嘿	-3211
韩式	-3212
一件	-3213
猪蹄	-3214
蟹肉	-3215
不过来	-3216
可以选择	-3217
汤里	-3218
一个是	-3219
太甜了	-3220
当初	-3221
............	-3222
唯一的	-3223
表示	-3224
带走	-3225
状态	-3226
平常	-3227
一套	-3228
改良	-3229
我们说	-3230
剁椒鱼头	-3231
还是喜欢	-3232
沒有	-3233
▁这本书	-3234
瓜子	-3235
北京的	-3236
老鸭	-3237
鲜肉	-3238
层的	-3239
很贵	-3240
阿拉	-3241
用品	-3242
也非常	-3243
点个	-3244
信息	-3245
▁貌似	-3246
环境还不错	-3247
地址	-3248
很重	-3249
出炉	-3250
封面	-3251
尚可	-3252
IN	-3253
泡饭	-3254
感兴趣	-3255
▁没想到	-3256
带点	-3257
稍微有点	-3258
就直接	-3259
参考	-3260
用心	-3261
家乐福	-3262
不错的选择	-3263
手撕包菜	-3264
天妇	-3265
细细	-3266
过得去	-3267
▁只有	-3268
▁很好吃	-3269
肉肉	-3270
都被	-3271
火烧	-3272
印象最	-3273
不会再去了	-3274
▁而	-3275
鸭肉	-3276
天妇罗	-3277
胡同	-3278
每次都是	-3279
法式	-3280
就跟	-3281
都不会	-3282
不能吃	-3283
上午	-3284
是那种	-3285
儿童	-3286
长了	-3287
下次去	-3288
▁大家	-3289
面前	-3290
偶然	-3291
地上	-3292
上来的时候	-3293
▁新	-3294
大厦	-3295
日本料理	-3296
销售	-3297
出彩	-3298
边吃	-3299
一个个	-3300
干的	-3301
盖饭	-3302
感觉还不错	-3303
检查	-3304
表面	-3305
西湖	-3306
有一种	-3307
说我	-3308
丽的	-3309
中文	-3310
天地	-3311
真的好	-3312
其他地方	-3313
赞的	-3314
方便的	-3315
真的很好吃	-3316
用来	-3317
整洁	-3318
▁很多	-3319
一到	-3320
炸酱面	-3321
不清楚	-3322
三杯	-3323
纸张	-3324
蝎子	-3325
外带	-3326
我一直	-3327
作用	-3328
啊啊	-3329
狮子头	-3330
ZZA	-3331
一款	-3332
大街	-3333
必要	-3334
季节	-3335
秘制	-3336
趁热	-3337
和服务	-3338
的都是	-3339
尝试一下	-3340
▁自己	-3341
方向	-3342
并不是	-3343
外国人	-3344
要了一	-3345
▁的	-3346
门脸	-3347
DQ	-3348
红枣	-3349
好评	-3350
传统的	-3351
这边的	-3352
一般都是	-3353
▁M	-3354
盖浇饭	-3355
优雅	-3356
回头	-3357
道理	-3358
在附近	-3359
变得	-3360
无论是	-3361
吃不下了	-3362
奶香	-3363
一吃	-3364
泰式	-3365
高峰	-3366
▁对于	-3367
只不过	-3368
叫服务员	-3369
居然是	-3370
PIZZA	-3371
什么都	-3372
海底捞	-3373
穿着	-3374
比起来	-3375
订了	-3376
不去	-3377
▁第	-3378
场地	-3379
一阵	-3380
帮助	-3381
张桌子	-3382
肉类	-3383
饭后	-3384
有问题	-3385
点多了	-3386
块钱的	-3387
浓汤	-3388
~~~~~~	-3389
浇头	-3390
锅巴	-3391
奶昔	-3392
姐妹	-3393
米花	-3394
耐烦	-3395
会儿	-3396
拍的	-3397
酒店的	-3398
元钱	-3399
挑剔	-3400
嫩嫩的	-3401
煎饼	-3402
教育	-3403
吃掉	-3404
健身	-3405
无数	-3406
IP	-3407
森林	-3408
软件	-3409
我这个	-3410
跟朋友	-3411
吃到最后	-3412
化的	-3413
门的	-3414
其实是	-3415
漂亮的	-3416
大约	-3417
挺大	-3418
饱的	-3419
换成	-3420
也好吃	-3421
了不过	-3422
松软	-3423
本来是	-3424
这里是	-3425
一根	-3426
在一个	-3427
温度	-3428
约会	-3429
差差	-3430
最爱的	-3431
il	-3432
对得起	-3433
拿来	-3434
各个	-3435
层次	-3436
窗口	-3437
很鲜美	-3438
蒜香	-3439
不来	-3440
原料	-3441
▁蛮	-3442
其他的菜	-3443
无聊	-3444
语言	-3445
▁性价比	-3446
很薄	-3447
轻松	-3448
内部	-3449
都快	-3450
百合	-3451
买了个	-3452
麻麻	-3453
最最	-3454
▁吃的	-3455
她家	-3456
神奇	-3457
蘸料	-3458
都唔	-3459
又去	-3460
重要的是	-3461
吃不下	-3462
▁和朋友	-3463
▁应该	-3464
也还行	-3465
温泉	-3466
服务员的态度	-3467
好不容易	-3468
▁味道不错	-3469
关注	-3470
坐的	-3471
哈根	-3472
意料	-3473
烧卖	-3474
独立	-3475
海蜇	-3476
腐竹	-3477
以前在	-3478
原来的	-3479
力的	-3480
总算	-3481
▁好吃	-3482
加的	-3483
比较近	-3484
大家的	-3485
餐厅的	-3486
包裹	-3487
没得	-3488
小区	-3489
很慢	-3490
就比较	-3491
深圳	-3492
▁连	-3493
就和	-3494
白灼	-3495
公道	-3496
很丰富	-3497
促销	-3498
汤和	-3499
理由	-3500
开水	-3501
肥羊	-3502
就可以了	-3503
它们	-3504
出版社	-3505
要的是	-3506
不给	-3507
了两	-3508
蘸酱	-3509
这就是	-3510
咸蛋黄	-3511
▁w	-3512
爸妈	-3513
帅哥	-3514
感到	-3515
▁嘻嘻	-3516
电影院	-3517
红色的	-3518
意义	-3519
让他	-3520
麻辣香锅	-3521
牛筋	-3522
▁第一	-3523
当中	-3524
▁公司	-3525
lo	-3526
不过还是	-3527
个人认为	-3528
稍稍	-3529
结账的时候	-3530
▁鱼	-3531
人来	-3532
鲜奶	-3533
吃出	-3534
组织	-3535
别的地方	-3536
但系	-3537
鱼香肉丝	-3538
TV	-3539
位于	-3540
现金	-3541
不得不	-3542
▁中	-3543
坑爹	-3544
自助的	-3545
开放	-3546
▁希望	-3547
而且是	-3548
生意很好	-3549
条件	-3550
菜了	-3551
北极贝	-3552
主题	-3553
没什么特别	-3554
的啊	-3555
and	-3556
会不会	-3557
买一送一	-3558
小块	-3559
的吃	-3560
做到	-3561
哥哥	-3562
真的很不错	-3563
在了	-3564
慕名而	-3565
但我	-3566
将近	-3567
优势	-3568
摩卡	-3569
小馄饨	-3570
随着	-3571
肉夹馍	-3572
人性	-3573
就到	-3574
花钱	-3575
的鱼	-3576
挺有	-3577
改善	-3578
沙律	-3579
达斯	-3580
稀饭	-3581
河粉	-3582
化妆师	-3583
人不是很多	-3584
书中	-3585
名字了	-3586
好喝的	-3587
我们在	-3588
袋子	-3589
刚开业	-3590
看了下	-3591
坐下来	-3592
无所谓	-3593
糕点	-3594
羊腿	-3595
ch	-3596
父母	-3597
闺蜜	-3598
得上	-3599
法国	-3600
住的	-3601
各式	-3602
迷你	-3603
普遍	-3604
▁他们	-3605
设备	-3606
点完	-3607
好好好好好好好好	-3608
gh	-3609
让服务员	-3610
闻到	-3611
▁这是	-3612
味道还是不错的	-3613
饭菜	-3614
非常不错	-3615
着实	-3616
fe	-3617
刺激	-3618
馅的	-3619
她家的	-3620
一段时间	-3621
年纪	-3622
高级	-3623
就看到	-3624
小龙虾	-3625
好奇	-3626
无线	-3627
就不要	-3628
花椒	-3629
的小菜	-3630
停车场	-3631
多少钱	-3632
单独	-3633
ro	-3634
这两	-3635
就感觉	-3636
进口	-3637
就是在	-3638
冷了	-3639
很辣	-3640
也比	-3641
各位	-3642
难找	-3643
店主	-3644
色彩	-3645
点评的	-3646
小份	-3647
肉末	-3648
------------	-3649
一起吃	-3650
当然是	-3651
的和	-3652
难怪	-3653
不方便	-3654
买了一个	-3655
猪肝	-3656
青岛	-3657
点评网	-3658
头了	-3659
我吃	-3660
有股	-3661
月份	-3662
好少	-3663
男友	-3664
好多了	-3665
好啊	-3666
羊蝎子	-3667
代表	-3668
就已经	-3669
三十	-3670
步行	-3671
勺子	-3672
形状	-3673
不錯	-3674
八宝	-3675
锅的	-3676
极了	-3677
▁周末	-3678
紫薯	-3679
江南	-3680
蒸蛋	-3681
花生米	-3682
服务人员	-3683
试了	-3684
为啥	-3685
始终	-3686
我了	-3687
统一	-3688
订的	-3689
会觉得	-3690
很可爱	-3691
ay	-3692
蛏子	-3693
沈阳	-3694
▁离	-3695
分的	-3696
腾腾	-3697
一个小时	-3698
想买	-3699
风情	-3700
聊聊天	-3701
那边的	-3702
干煸	-3703
有几	-3704
我这种	-3705
指甲	-3706
微微	-3707
虾滑	-3708
然后就	-3709
再点	-3710
比我	-3711
湖南	-3712
▁A	-3713
搞得	-3714
商业	-3715
的餐厅	-3716
很细	-3717
是小	-3718
一直没	-3719
每桌	-3720
点左右	-3721
失望了	-3722
菜馆	-3723
前几天	-3724
瘦肉粥	-3725
那么大	-3726
银鳕鱼	-3727
加入	-3728
意粉	-3729
自动	-3730
很满意	-3731
看不到	-3732
分析	-3733
纯粹	-3734
以至于	-3735
哈根达斯	-3736
无锡	-3737
弄的	-3738
虾球	-3739
感觉一般	-3740
办公	-3741
了一家	-3742
过来了	-3743
女儿	-3744
一间	-3745
什锦	-3746
▁正好	-3747
消费者	-3748
怎么说呢	-3749
以外	-3750
而不	-3751
麻将	-3752
有嚼劲	-3753
蛮大的	-3754
的人来说	-3755
子上	-3756
没什么味道	-3757
下车	-3758
千层	-3759
就进去了	-3760
猪颈	-3761
还有些	-3762
也多	-3763
给他	-3764
过一次	-3765
花的	-3766
香甜	-3767
▁同事	-3768
和同学	-3769
太好	-3770
烤鸡	-3771
质感	-3772
很精致	-3773
SO	-3774
仍然	-3775
拌菜	-3776
范围	-3777
▁什么	-3778
深的	-3779
后来又	-3780
安全	-3781
黄的	-3782
中餐	-3783
大肠	-3784
彻底	-3785
还以为	-3786
办卡	-3787
对着	-3788
小聚	-3789
▁终于	-3790
包包	-3791
气派	-3792
汤圆	-3793
花菜	-3794
后就	-3795
▁老公	-3796
卤肉饭	-3797
适应	-3798
优点	-3799
团的	-3800
真不错	-3801
时光	-3802
很好看	-3803
一两	-3804
洗澡	-3805
牛肉丸	-3806
极其	-3807
不爱吃	-3808
中山	-3809
不开	-3810
这是我	-3811
▁两个人	-3812
▁会	-3813
▁才	-3814
也在	-3815
浪漫	-3816
▁基本	-3817
▁店面	-3818
走人	-3819
马虎	-3820
催了	-3821
柚子	-3822
收藏	-3823
酱汤	-3824
印象中	-3825
能不能	-3826
味道比较	-3827
机场	-3828
辣白菜	-3829
雪糕	-3830
承认	-3831
好好吃	-3832
经常会	-3833
还满	-3834
鹌鹑	-3835
兴奋	-3836
街上	-3837
最后还是	-3838
读书	-3839
ice	-3840
没觉得	-3841
有好多	-3842
某些	-3843
服务费	-3844
很爽口	-3845
肉和	-3846
薄荷	-3847
非常非常	-3848
元左右	-3849
没有人	-3850
做工	-3851
店长	-3852
的心	-3853
就没了	-3854
就是一个	-3855
也说	-3856
有空	-3857
藕片	-3858
朋友们	-3859
山寨	-3860
忽略	-3861
▁鸡	-3862
体现	-3863
打的	-3864
▁一份	-3865
但还是	-3866
拿出来	-3867
肉酱	-3868
超好	-3869
其他菜	-3870
纸巾	-3871
面上	-3872
角度	-3873
商务宴请	-3874
其余	-3875
纯正	-3876
网络	-3877
▁G	-3878
第一次来	-3879
感覺	-3880
有关	-3881
▁大概	-3882
不晓得	-3883
▁p	-3884
真正的	-3885
可以看到	-3886
收了	-3887
超级好吃	-3888
买来	-3889
几十	-3890
动手	-3891
跑去	-3892
印象深刻	-3893
▁上面	-3894
毫不	-3895
有点辣	-3896
一串	-3897
参观	-3898
香香的	-3899
喜歡	-3900
耳朵	-3901
的风格	-3902
大洋	-3903
锅包肉	-3904
▁吃完	-3905
很失望	-3906
爱吃的	-3907
现做的	-3908
也不便宜	-3909
一般般吧	-3910
功课	-3911
面馆	-3912
蘑菇汤	-3913
就算了	-3914
喝茶	-3915
实际上	-3916
時候	-3917
牛杂	-3918
里嫩	-3919
也都是	-3920
奶奶	-3921
還是	-3922
什么东西	-3923
几好	-3924
沙茶	-3925
馅儿	-3926
▁说实话	-3927
多么	-3928
面食	-3929
对不起	-3930
都不知道	-3931
太差	-3932
意识	-3933
人们	-3934
腻的	-3935
两三	-3936
新店	-3937
溜达	-3938
去的话	-3939
发货	-3940
表情	-3941
错误	-3942
大盘鸡	-3943
PA	-3944
自由	-3945
真的很好	-3946
焗饭	-3947
有点少	-3948
老是	-3949
身边	-3950
不出来	-3951
un	-3952
后面的	-3953
很爽	-3954
没吃到	-3955
西餐厅	-3956
形式	-3957
类似于	-3958
了呢	-3959
肥瘦	-3960
描述	-3961
的手	-3962
皮蛋瘦肉粥	-3963
】:	-3964
拉皮	-3965
黄豆	-3966
了一大	-3967
吃这个	-3968
进店	-3969
我吃了	-3970
保留	-3971
菜名	-3972
酸辣粉	-3973
建议大家	-3974
素的	-3975
那个时候	-3976
卤水	-3977
佩服	-3978
四人	-3979
都算	-3980
畅饮	-3981
蛮多	-3982
国家	-3983
鸭脖	-3984
司机	-3985
放到	-3986
坐满了	-3987
有点老	-3988
黑色	-3989
很奇怪	-3990
▁生意	-3991
味道是	-3992
外表	-3993
更新	-3994
还是满	-3995
先是	-3996
有小	-3997
售后	-3998
最早	-3999
气息	-4000
的来	-4001
糯糯	-4002
猪颈肉	-4003
补充	-4004
了一张	-4005
的人都	-4006
蛮不错的	-4007
在吃	-4008
讲解	-4009
完全是	-4010
重要的	-4011
满满的	-4012
粗糙	-4013
丰富的	-4014
体会	-4015
质的	-4016
白天	-4017
去那	-4018
胖子	-4019
喝完	-4020
猪扒	-4021
超多	-4022
成本	-4023
酥的	-4024
果然是	-4025
油了	-4026
一定会	-4027
值得一提的是	-4028
得多	-4029
就那么	-4030
很软	-4031
只有一个	-4032
汤的味道	-4033
呢间	-4034
口碑	-4035
走的	-4036
▁点	-4037
偏贵	-4038
这道	-4039
桂林	-4040
可以吃	-4041
的但是	-4042
一遍	-4043
我们点的	-4044
日本人	-4045
的比	-4046
一个月	-4047
挑了	-4048
我的口味	-4049
有着	-4050
游客	-4051
点了份	-4052
▁还不错	-4053
要点	-4054
吃饭的地方	-4055
出差	-4056
浦东	-4057
宽粉	-4058
时不	-4059
确认	-4060
超大	-4061
▁我的	-4062
皮的	-4063
配着	-4064
淡了	-4065
本来就	-4066
制品	-4067
退了	-4068
上学	-4069
▁适合	-4070
▁居然	-4071
真是太	-4072
▁可能是	-4073
糊涂	-4074
想的	-4075
模式	-4076
七八糟	-4077
装修风格	-4078
一进去	-4079
美味的	-4080
▁尤其是	-4081
手抓	-4082
太小了	-4083
会很	-4084
有一些	-4085
而不是	-4086
激动	-4087
香浓	-4088
如果不是	-4089
立刻	-4090
之后就	-4091
有特色的	-4092
▁像	-4093
香酥	-4094
两口	-4095
不咋地	-4096
比较高	-4097
服务很好	-4098
回锅	-4099
夜宵	-4100
自制	-4101
牛油	-4102
不小心	-4103
还算是	-4104
一个菜	-4105
可以用	-4106
香料	-4107
ck	-4108
就给	-4109
起了	-4110
量大	-4111
很多东西	-4112
娱乐	-4113
杯的	-4114
的特色	-4115
蒜泥	-4116
的种类	-4117
第一口	-4118
好些	-4119
背景	-4120
就更好了	-4121
在门口	-4122
麦菜	-4123
没有任何	-4124
记住	-4125
顿时	-4126
我点的	-4127
要不要	-4128
一眼	-4129
奢侈	-4130
都比	-4131
变成了	-4132
啊什么的	-4133
摆盘	-4134
可以打	-4135
在这个	-4136
比较一般	-4137
色泽	-4138
沙拉酱	-4139
一碟	-4140
苍蝇	-4141
银行	-4142
▁同学	-4143
城的	-4144
简餐	-4145
因为有	-4146
看中	-4147
一段	-4148
在上面	-4149
浪费了	-4150
短信	-4151
美中	-4152
二层	-4153
南瓜粥	-4154
很安静	-4155
随便吃	-4156
▁满	-4157
怪不得	-4158
▁五	-4159
昏暗	-4160
怎么吃	-4161
我已经	-4162
▁很有	-4163
正品	-4164
吃的话	-4165
乱七八糟	-4166
滑的	-4167
感觉到	-4168
小米	-4169
爱情	-4170
目的	-4171
意大利面	-4172
如今	-4173
点点	-4174
连锁店	-4175
手的	-4176
▁发现	-4177
有限	-4178
就这么	-4179
一群	-4180
手里	-4181
去吃过	-4182
临时	-4183
吸烟	-4184
的店面	-4185
简直是	-4186
见的	-4187
味道和	-4188
保护	-4189
办事	-4190
笔记	-4191
云吞面	-4192
退货	-4193
老人	-4194
小丸子	-4195
也够	-4196
白斩	-4197
可以的	-4198
得了	-4199
我想象	-4200
瞬间	-4201
简陋	-4202
曲奇	-4203
▁o	-4204
陆续	-4205
安装	-4206
AN	-4207
干了	-4208
▁还好	-4209
没吃完	-4210
美中不足	-4211
礼物	-4212
KTV	-4213
我们去	-4214
特别多	-4215
而且还	-4216
谁知道	-4217
吃到了	-4218
第一天	-4219
得好	-4220
肉串	-4221
不需要	-4222
俩人	-4223
有点点	-4224
的蛋糕	-4225
▁把	-4226
假日	-4227
植物	-4228
那么好吃	-4229
~!	-4230
一副	-4231
微笑	-4232
很浓郁	-4233
出名	-4234
飞机	-4235
其实我	-4236
四季豆	-4237
重复	-4238
电子	-4239
不错了	-4240
努力	-4241
数量	-4242
价格便宜	-4243
恐怖	-4244
早茶	-4245
追求	-4246
很淡	-4247
就进去	-4248
有几个	-4249
两层	-4250
掉的	-4251
或者是	-4252
酸酸甜甜的	-4253
子和	-4254
点到	-4255
男的	-4256
好很多	-4257
忽悠	-4258
过后	-4259
人物	-4260
辣辣的	-4261
现象	-4262
肺片	-4263
让他们	-4264
典型的	-4265
更好吃	-4266
三星	-4267
很好找	-4268
没问题	-4269
童鞋	-4270
远的	-4271
对我来说	-4272
▁也不	-4273
都很喜欢	-4274
给我的	-4275
告诉我们	-4276
汤是	-4277
ake	-4278
的做法	-4279
沸腾	-4280
仿佛	-4281
分开	-4282
▁话说	-4283
铁板烧	-4284
玩意	-4285
纸质	-4286
都是在	-4287
幸运	-4288
队伍	-4289
接近	-4290
汤水	-4291
位的	-4292
出乎	-4293
东北菜	-4294
可能会	-4295
化了	-4296
控制	-4297
吉野	-4298
百货	-4299
也很大	-4300
▁多	-4301
礼貌	-4302
带了	-4303
掌握	-4304
每次必点	-4305
▁加	-4306
十多	-4307
得太	-4308
真好	-4309
腌制	-4310
不喜欢吃	-4311
白斩鸡	-4312
真实	-4313
暖暖	-4314
烂的	-4315
的位子	-4316
还送了	-4317
花茶	-4318
西式	-4319
来的时候	-4320
当场	-4321
大排档	-4322
感觉比	-4323
清淡的	-4324
费劲	-4325
环境还可以	-4326
双人	-4327
红油	-4328
以下	-4329
我记得	-4330
▁吃起来	-4331
没什么特色	-4332
▁总	-4333
一上来	-4334
很多次	-4335
干脆	-4336
驴肉	-4337
服务员都	-4338
金牌	-4339
比较贵	-4340
酸酸甜甜	-4341
一品	-4342
书店	-4343
骨肉	-4344
鲜香	-4345
口感很好	-4346
世纪	-4347
好点	-4348
完整	-4349
昨晚	-4350
概念	-4351
比較	-4352
荤菜	-4353
黄色	-4354
▁里面有	-4355
不過	-4356
▁个人	-4357
由于是	-4358
想象中的	-4359
喜欢他家的	-4360
菜心	-4361
中等	-4362
办的	-4363
太大了	-4364
想来	-4365
很小的	-4366
两家	-4367
▁超级	-4368
切片	-4369
居多	-4370
蝴蝶	-4371
走过	-4372
吃饱了	-4373
土豆片	-4374
就有点	-4375
楼上的	-4376
▁店里	-4377
ed	-4378
礼服	-4379
在我们	-4380
三四	-4381
类型	-4382
饮食	-4383
不是那么	-4384
但是感觉	-4385
以来	-4386
企业	-4387
喝着	-4388
熟了	-4389
▁说是	-4390
基本都	-4391
的不过	-4392
到的时候	-4393
ut	-4394
吼吼	-4395
的比较	-4396
嚼头	-4397
甜食	-4398
基本上都是	-4399
▁做	-4400
我妈	-4401
打车	-4402
提示	-4403
火的	-4404
很美味	-4405
毛肚	-4406
这条	-4407
菜的口味	-4408
我俩	-4409
不知道怎么	-4410
市区	-4411
可能因为	-4412
就买了	-4413
快餐店	-4414
确定	-4415
糟糕	-4416
▁总体	-4417
另一	-4418
招待	-4419
充满	-4420
用卡	-4421
付钱	-4422
我会	-4423
老店	-4424
了我们	-4425
韩国料理	-4426
力推荐	-4427
就一个	-4428
环境很	-4429
量很足	-4430
但是没有	-4431
布局	-4432
盗版	-4433
纪念	-4434
音质	-4435
最后的	-4436
我和老公	-4437
一次性	-4438
也很有	-4439
就够了	-4440
牛肉的	-4441
不错不错	-4442
个个	-4443
不明白	-4444
说没有	-4445
▁每次去	-4446
肉饼	-4447
三杯鸡	-4448
我就是	-4449
很有意思	-4450
人生	-4451
很酥	-4452
推出	-4453
坐车	-4454
▁已经	-4455
上海人	-4456
我們	-4457
顺利	-4458
▁超	-4459
句话	-4460
助理	-4461
吃口	-4462
限量	-4463
香气	-4464
来得	-4465
鹌鹑蛋	-4466
三层	-4467
的水	-4468
没的说	-4469
不过现在	-4470
比萨	-4471
美好	-4472
规模	-4473
蜗牛	-4474
在他家	-4475
很快就	-4476
两个人吃	-4477
地儿	-4478
牛肚	-4479
的好地方	-4480
四五	-4481
厚实	-4482
毫无	-4483
接受的	-4484
都已经	-4485
我一个人	-4486
us	-4487
白切	-4488
后发现	-4489
从小	-4490
微波	-4491
薄薄的	-4492
口感不错	-4493
喝汤	-4494
弹牙	-4495
熏鱼	-4496
老北京	-4497
干锅牛蛙	-4498
▁算是	-4499
做生意	-4500
都不是	-4501
咬不动	-4502
▁H	-4503
太辣	-4504
节目	-4505
咬下去	-4506
上一	-4507
离家近	-4508
乌冬面	-4509
有待	-4510
明显的	-4511
相当不错	-4512
················	-4513
▁皮	-4514
车站	-4515
逛完	-4516
▁装修	-4517
大锅	-4518
配了	-4519
性价比很高	-4520
中国人	-4521
是我们	-4522
因為	-4523
看出	-4524
明天	-4525
书籍	-4526
拍了	-4527
很清爽	-4528
上菜的速度	-4529
巴黎	-4530
都喜欢	-4531
煎饺	-4532
可以自己	-4533
ps	-4534
在于	-4535
形的	-4536
竞争	-4537
还成	-4538
有的时候	-4539
是怎么	-4540
不能刷卡	-4541
投诉	-4542
吃不到	-4543
测试	-4544
经典的	-4545
下载	-4546
老的	-4547
就不用	-4548
我朋友	-4549
有点硬	-4550
的一种	-4551
西米露	-4552
喝点	-4553
喝过	-4554
很滑	-4555
▁吃过	-4556
厚厚的	-4557
可可	-4558
但味道	-4559
便利	-4560
小资	-4561
时段	-4562
卖完了	-4563
来吃的	-4564
的声音	-4565
哈密	-4566
考试	-4567
▁下午	-4568
都没有了	-4569
不是一般的	-4570
有点失望	-4571
水果沙拉	-4572
這個	-4573
▁油	-4574
三人	-4575
这个价钱	-4576
不得不说	-4577
印象最深	-4578
能吃到	-4579
几个朋友	-4580
原汁	-4581
咨询	-4582
雪花	-4583
之前的	-4584
是我喜欢的	-4585
相对于	-4586
人很少	-4587
就是了	-4588
橄榄	-4589
状况	-4590
甜度	-4591
略微	-4592
巧克力蛋糕	-4593
一试	-4594
期的	-4595
冲动	-4596
吃饭的时候	-4597
刀削	-4598
前菜	-4599
实用	-4600
街的	-4601
凉面	-4602
东西的	-4603
还凑合	-4604
简直就是	-4605
眼的	-4606
去他家	-4607
的确是	-4608
太好了	-4609
形象	-4610
酸辣汤	-4611
反映	-4612
恶劣	-4613
扬州	-4614
仲有	-4615
心想	-4616
接下来	-4617
不甜	-4618
次数	-4619
雪碧	-4620
可以说是	-4621
养生	-4622
态度很好	-4623
歌曲	-4624
工作日	-4625
一向	-4626
同志	-4627
换个	-4628
淘宝	-4629
▁这样	-4630
想吃的	-4631
主义	-4632
升级	-4633
毛巾	-4634
至今	-4635
首选	-4636
馋嘴	-4637
吃完饭	-4638
跟我说	-4639
一流	-4640
要多	-4641
入味的	-4642
细致	-4643
▁怎么	-4644
年轻人	-4645
也觉得	-4646
哈密瓜	-4647
老板说	-4648
足够了	-4649
是我吃过	-4650
旅行	-4651
爱好	-4652
表现	-4653
▁据说	-4654
▁进去	-4655
味道也很	-4656
家具	-4657
空的	-4658
收钱	-4659
直奔	-4660
的情况下	-4661
打包了	-4662
性价比不高	-4663
点缀	-4664
烧鸡	-4665
▁毕竟	-4666
樱桃	-4667
小笼包	-4668
我点了	-4669
上课	-4670
有名	-4671
荠菜	-4672
趁热吃	-4673
地的	-4674
计划	-4675
试下	-4676
覺得	-4677
是一种	-4678
还有那个	-4679
半斤	-4680
整齐	-4681
去吃吃	-4682
号的	-4683
来这里吃	-4684
又多	-4685
多数	-4686
民族	-4687
五星级	-4688
▁f	-4689
罢了	-4690
老实	-4691
螺丝	-4692
▁特别	-4693
同事说	-4694
计较	-4695
▁要了	-4696
有点甜	-4697
▁走	-4698
的同学	-4699
过桥	-4700
解决了	-4701
相对来说	-4702
一对	-4703
厦门	-4704
蒸的	-4705
涮菜	-4706
混乱	-4707
菜价	-4708
一点儿	-4709
就是量	-4710
但是还是	-4711
愉快	-4712
▁当	-4713
竟然是	-4714
吃得很	-4715
下降	-4716
大叔	-4717
女士	-4718
的在	-4719
▁全	-4720
做饭	-4721
我跟	-4722
流行	-4723
烧肉	-4724
还是很好的	-4725
的新	-4726
▁d	-4727
▁给	-4728
德国	-4729
牛扒	-4730
量也	-4731
去试试	-4732
热水	-4733
龟苓	-4734
极品	-4735
贵啊	-4736
笋尖	-4737
的选择	-4738
量很大	-4739
ab	-4740
▁有些	-4741
春节	-4742
想念	-4743
小了点	-4744
鸳鸯锅	-4745
把我们	-4746
这个价位	-4747
干丝	-4748
更有	-4749
面是	-4750
颗粒	-4751
没那么	-4752
葱花	-4753
▁要是	-4754
传说中	-4755
同样的	-4756
营业员	-4757
黄色的	-4758
酱的	-4759
夫妻肺片	-4760
的菜单	-4761
人还	-4762
老大	-4763
味道不	-4764
比较喜欢吃	-4765
接触	-4766
要买	-4767
这类	-4768
炸猪排	-4769
付款	-4770
最大	-4771
▁L	-4772
吃上	-4773
没话说	-4774
西北	-4775
很清	-4776
谈不上	-4777
兄弟	-4778
呼呼	-4779
切得	-4780
避风	-4781
担担	-4782
很久了	-4783
唔系	-4784
好小	-4785
最喜欢的是	-4786
理发	-4787
莫名	-4788
便宜了	-4789
也就算了	-4790
挑选	-4791
火车站	-4792
绿色的	-4793
复杂	-4794
爆满	-4795
没多久	-4796
耐心的	-4797
不让	-4798
红豆沙	-4799
蛋白	-4800
往往	-4801
是从	-4802
紧张	-4803
十分钟	-4804
放弃了	-4805
暖和	-4806
的咖啡	-4807
洗头	-4808
百多	-4809
▁唯一	-4810
是一家	-4811
▁唉	-4812
爷爷	-4813
做的不错	-4814
两只	-4815
芥兰	-4816
串串	-4817
中饭	-4818
小了	-4819
芦笋	-4820
一盒	-4821
很咸	-4822
拉着	-4823
▁我就	-4824
三次	-4825
烟熏	-4826
很正	-4827
不算多	-4828
那个味道	-4829
宁波	-4830
菜谱	-4831
下来了	-4832
不可以	-4833
我没有	-4834
说一下	-4835
牛河	-4836
魔芋	-4837
▁菜品	-4838
吃了一口	-4839
这里的环境	-4840
酒楼	-4841
龟苓膏	-4842
周一	-4843
汤面	-4844
豌豆	-4845
也还好	-4846
填饱	-4847
淀粉	-4848
一番	-4849
东南	-4850
▁我喜欢	-4851
舍得	-4852
餐巾	-4853
华丽	-4854
蔬菜沙拉	-4855
要了一份	-4856
▁本	-4857
这里有	-4858
答应	-4859
VIP	-4860
ES	-4861
都非常	-4862
地区	-4863
平均	-4864
灵的	-4865
莴笋	-4866
香脆	-4867
▁只能	-4868
之前在	-4869
要加	-4870
高了	-4871
环境好	-4872
思想	-4873
有点油	-4874
没去过	-4875
味道也很好	-4876
DI	-4877
▁能	-4878
不过感觉	-4879
小锅	-4880
比其他	-4881
相同	-4882
米有	-4883
▁不会	-4884
我最	-4885
想不到	-4886
这一点	-4887
眼前	-4888
馅饼	-4889
而且价格	-4890
念念	-4891
太差了	-4892
牌子的	-4893
神马的	-4894
力度	-4895
找了个	-4896
现在是	-4897
勤快	-4898
//	-4899
HK	-4900
ri	-4901
东坡	-4902
one	-4903
人太多	-4904
马虎虎	-4905
马马虎虎	-4906
让人觉得	-4907
印象了	-4908
因为我们	-4909
很有嚼劲	-4910
很热	-4911
冰块	-4912
预订	-4913
很普通	-4914
太多的	-4915
爆米花	-4916
到这里来	-4917
伙子	-4918
家附近	-4919
卡布	-4920
筋道	-4921
我也不	-4922
】,	-4923
桂鱼	-4924
泡馍	-4925
看似	-4926
看了一下	-4927
设置	-4928
本帮菜	-4929
的我们	-4930
多人	-4931
技师	-4932
逛了	-4933
楼下的	-4934
上面有	-4935
饭和	-4936
的时候还	-4937
去到	-4938
分享	-4939
发了	-4940
均匀	-4941
文章	-4942
介绍的	-4943
化妆品	-4944
选择的	-4945
▁更	-4946
幽静	-4947
总归	-4948
服务员就	-4949
没有以前	-4950
▁第一次去	-4951
生气	-4952
▁《	-4953
照顾	-4954
感觉像	-4955
哈哈哈哈	-4956
鸡的	-4957
的菜式	-4958
不等	-4959
专柜	-4960
就得	-4961
赞一下	-4962
重口味	-4963
ag	-4964
埋单	-4965
我这	-4966
专业的	-4967
睡觉	-4968
全身	-4969
刘海	-4970
TA	-4971
才来	-4972
和我们	-4973
分了	-4974
大厨	-4975
学的	-4976
菌类	-4977
西单	-4978
贴心的	-4979
围虾	-4980
无穷	-4981
次的	-4982
吐司	-4983
度的	-4984
车子	-4985
有时间	-4986
不是那种	-4987
相比之下	-4988
在此	-4989
简洁	-4990
▁偶	-4991
椰子	-4992
也是很	-4993
人说	-4994
到达	-4995
叶子	-4996
从来没有	-4997
除非	-4998
不管是	-4999
可以免费	-5000
黑鱼	-5001
麻婆	-5002
小孩子	-5003
吃不饱	-5004
有意思的	-5005
▁O	-5006
后来发现	-5007
出口	-5008
鸭头	-5009
两个菜	-5010
实在的	-5011
尝试了	-5012
▁总体来说	-5013
无味	-5014
一大碗	-5015
下来的	-5016
情人	-5017
鱼皮	-5018
不记得了	-5019
俱全	-5020
蒸饺	-5021
融合	-5022
黑的	-5023
了一层	-5024
信用卡	-5025
可以点	-5026
避风塘	-5027
叫我	-5028
分量很足	-5029
ER	-5030
基围虾	-5031
也没有什么	-5032
点菜的时候	-5033
甜蜜	-5034
女朋友	-5035
▁被	-5036
的上	-5037
两张	-5038
内存	-5039
半份	-5040
巧克力的	-5041
路上的	-5042
匹萨	-5043
我们去的时候	-5044
看书	-5045
越吃	-5046
了一碗	-5047
在嘴里	-5048
不太一样	-5049
就是这个	-5050
服务员会	-5051
一把	-5052
久的	-5053
人满	-5054
古色	-5055
景点	-5056
就来了	-5057
来这家	-5058
算是比较	-5059
不失	-5060
若干	-5061
慢慢慢慢	-5062
ur	-5063
一排	-5064
得我	-5065
稳定	-5066
菜和	-5067
就只有	-5068
挺好吃	-5069
木桶	-5070
果盘	-5071
茶叶	-5072
新出的	-5073
场所	-5074
品味	-5075
提出	-5076
肉馅	-5077
吸引人	-5078
还有什么	-5079
太贵	-5080
这的	-5081
烤得	-5082
里面的东西	-5083
GG	-5084
米的	-5085
非要	-5086
玩了	-5087
菜肴	-5088
多多	-5089
▁外面	-5090
的啦	-5091
解馋	-5092
事实证明	-5093
一步	-5094
海南	-5095
订单	-5096
很难吃	-5097
▁真的是	-5098
包着	-5099
意式	-5100
景色	-5101
最便宜的	-5102
~~~~~~~	-5103
体育	-5104
▁去了	-5105
送来	-5106
▁买了	-5107
这也是	-5108
布朗	-5109
黑木耳	-5110
温的	-5111
也很足	-5112
花生酱	-5113
有大	-5114
一直是	-5115
就是价格	-5116
▁海鲜	-5117
回来的	-5118
再也不会	-5119
西点	-5120
图书馆	-5121
记不清	-5122
在这家	-5123
点什么	-5124
包含	-5125
来回	-5126
去尝尝	-5127
可以说	-5128
我问	-5129
无敌	-5130
达到	-5131
牛肉粒	-5132
CH	-5133
▁打	-5134
淮海	-5135
炒蛋	-5136
少的可怜	-5137
珍珠奶茶	-5138
偏爱	-5139
家乡	-5140
千万别	-5141
感觉很好	-5142
狗狗	-5143
一点不	-5144
排队的	-5145
好后	-5146
酒精	-5147
锅子	-5148
问我们	-5149
太重	-5150
~~【	-5151
有那么	-5152
相连	-5153
烤鸡翅	-5154
关门了	-5155
做过	-5156
坏的	-5157
甘露	-5158
▁作为	-5159
变了	-5160
啦啦	-5161
就走	-5162
开着	-5163
检测	-5164
十一	-5165
就是个	-5166
料很足	-5167
味道都不错	-5168
手上	-5169
冻豆腐	-5170
就走了	-5171
约了	-5172
明星	-5173
吃完后	-5174
的衣服	-5175
▁因为是	-5176
不是我	-5177
喝咖啡	-5178
老公说	-5179
▁应该是	-5180
▁天	-5181
多汁	-5182
几桌	-5183
平民	-5184
的味道不错	-5185
吃过了	-5186
吃了一个	-5187
三分	-5188
样式	-5189
无语了	-5190
去处	-5191
带回家	-5192
都有点	-5193
点的时候	-5194
不绝	-5195
桌游	-5196
▁还可以	-5197
以后还会	-5198
LO	-5199
怀旧	-5200
鱼和	-5201
家门口	-5202
点菜的	-5203
一直没有	-5204
▁总的来说	-5205
挂着	-5206
美式	-5207
笑容	-5208
完全不	-5209
物美价廉	-5210
▁/	-5211
今日	-5212
热了	-5213
等我	-5214
菜是	-5215
没看到	-5216
这家是	-5217
精彩	-5218
再去的	-5219
吃下去	-5220
应该会	-5221
服务的	-5222
;【	-5223
烤鳗鱼	-5224
美好的	-5225
还是不	-5226
陕西	-5227
忙不过来	-5228
好香	-5229
肘子	-5230
萝卜丝	-5231
先说	-5232
摆设	-5233
ms	-5234
人手	-5235
国外	-5236
增加	-5237
排了	-5238
面皮	-5239
人的口味	-5240
在卓越	-5241
有两个	-5242
我不知道	-5243
li	-5244
做完	-5245
很划算	-5246
撑了	-5247
公司的	-5248
来这边	-5249
流水	-5250
鸭肠	-5251
大连	-5252
肥的	-5253
▁价钱	-5254
总会	-5255
根粉	-5256
了一半	-5257
的内容	-5258
很硬	-5259
皮薄	-5260
▁去年	-5261
我不喜欢	-5262
号码	-5263
听着	-5264
观察	-5265
杂粮	-5266
豆捞	-5267
▁开始	-5268
代金	-5269
涨了	-5270
资料	-5271
的一道	-5272
隔壁的	-5273
倒是不错	-5274
担担面	-5275
贵了点	-5276
用券	-5277
失望的	-5278
很清淡	-5279
猪肚	-5280
迅速	-5281
第一家	-5282
长得	-5283
上楼	-5284
不再	-5285
卤蛋	-5286
碟子	-5287
量少	-5288
▁点的	-5289
各样的	-5290
很长	-5291
想说	-5292
清真	-5293
▁到了	-5294
喝起来	-5295
这东西	-5296
▁外	-5297
了的	-5298
咔咔	-5299
突出	-5300
续杯	-5301
葫芦	-5302
记录	-5303
餐后	-5304
早知道	-5305
非常有	-5306
丝瓜	-5307
叔叔	-5308
把它	-5309
微辣的	-5310
试试看	-5311
每次都要	-5312
你要	-5313
信号	-5314
澳门	-5315
▁饮料	-5316
个人吃	-5317
不愧	-5318
例汤	-5319
马蹄	-5320
芝麻酱	-5321
厚道	-5322
换货	-5323
落地	-5324
鸡饭	-5325
的颜色	-5326
难受	-5327
很多菜	-5328
大蒜	-5329
来自	-5330
软骨	-5331
大白菜	-5332
的品种	-5333
为止	-5334
鱼汤	-5335
多啊	-5336
欲望	-5337
腰果	-5338
鲍汁	-5339
有活动	-5340
超好吃	-5341
一壶	-5342
没吃出	-5343
某个	-5344
油烟	-5345
生命	-5346
下面是	-5347
内的	-5348
杨枝	-5349
紧实	-5350
ver	-5351
也不够	-5352
例如	-5353
几张	-5354
吃法	-5355
不怕	-5356
初中	-5357
所以我们	-5358
商量	-5359
▁建议	-5360
也有点	-5361
别家的	-5362
说这个	-5363
做出来的	-5364
交流	-5365
干嘛	-5366
店堂	-5367
的卡	-5368
蛮有	-5369
▁为了	-5370
不爱	-5371
人就	-5372
思考	-5373
那儿	-5374
嫩滑	-5375
的钱	-5376
店面不大	-5377
▁虾	-5378
各类	-5379
地图	-5380
的速度	-5381
ip	-5382
前后	-5383
毛豆	-5384
逊色	-5385
部位	-5386
在哪里	-5387
都一样	-5388
服务员很	-5389
的效果	-5390
也差不多	-5391
多大	-5392
差劲	-5393
至尊	-5394
▁几乎	-5395
微波炉	-5396
越吃越	-5397
寸的	-5398
就行	-5399
都无	-5400
元一斤	-5401
几分钟	-5402
因为在	-5403
放点	-5404
也不大	-5405
很长时间	-5406
名不	-5407
很想	-5408
每样	-5409
這裡	-5410
为我们	-5411
能看到	-5412
的饭	-5413
▁很久	-5414
▁基本上	-5415
应该不会	-5416
显然	-5417
不可能	-5418
我比较喜欢	-5419
▁the	-5420
一整	-5421
不加	-5422
打印	-5423
蘸着	-5424
镜头	-5425
、《	-5426
丝丝	-5427
做个	-5428
太咸了	-5429
这一家	-5430
困难	-5431
常去	-5432
来个	-5433
吃了个	-5434
开发票	-5435
千万不要	-5436
别致	-5437
▁看来	-5438
▁其他的	-5439
点过	-5440
裹着	-5441
两样	-5442
折腾	-5443
肉丸	-5444
就不能	-5445
麻婆豆腐	-5446
我们两个人	-5447
反复	-5448
说到	-5449
▁果然	-5450
▁让我	-5451
吃了很多	-5452
温柔	-5453
小点心	-5454
的一层	-5455
不是很甜	-5456
就行了	-5457
但也	-5458
餐巾纸	-5459
吃饭的人	-5460
悲剧	-5461
慢了	-5462
贡丸	-5463
去之前	-5464
地铁站	-5465
客人的	-5466
中华	-5467
合适的	-5468
了一会儿	-5469
所以没有	-5470
头一次	-5471
豆腐皮	-5472
▁叫	-5473
全国	-5474
哈尔	-5475
锻炼	-5476
十二	-5477
别有	-5478
改成	-5479
爽的	-5480
ion	-5481
DD	-5482
为患	-5483
收银台	-5484
还可以的	-5485
▁实在	-5486
最多的	-5487
▁没什么	-5488
根本没有	-5489
开到	-5490
心思	-5491
每种	-5492
让她	-5493
看到这家	-5494
一個	-5495
又不是	-5496
可以在	-5497
中了	-5498
田园	-5499
鲍菇	-5500
▁不然	-5501
精致的	-5502
家庭聚会	-5503
BA	-5504
同行	-5505
喝到	-5506
梅子	-5507
现实	-5508
那位	-5509
酸味	-5510
▁听说	-5511
的不错	-5512
是吃	-5513
此书	-5514
的客人	-5515
亲民	-5516
冻的	-5517
不满意	-5518
人家的	-5519
ce	-5520
哥们	-5521
婆婆	-5522
硬盘	-5523
PP	-5524
鸡丝	-5525
▁门口	-5526
很不好	-5527
▁白	-5528
会去	-5529
尴尬	-5530
需求	-5531
鸭舌	-5532
发挥	-5533
我吃的	-5534
保安	-5535
痛苦	-5536
▁主要是	-5537
一尝	-5538
龙之	-5539
▁一共	-5540
我们还	-5541
土鸡	-5542
网友	-5543
近的	-5544
笔记本	-5545
喜爱	-5546
带的	-5547
想不	-5548
批萨	-5549
烧鸭	-5550
物流	-5551
皮子	-5552
野生	-5553
▁有个	-5554
那家店	-5555
味道还是	-5556
实物	-5557
拿的	-5558
场景	-5559
就差	-5560
巴巴	-5561
消化	-5562
酸的	-5563
吃到的	-5564
来到了	-5565
尝试下	-5566
我们这	-5567
通知	-5568
那一	-5569
就一直	-5570
值的	-5571
逛累了	-5572
比较清淡	-5573
羊杂	-5574
脆脆	-5575
脸上	-5576
吃上去	-5577
,,,,	-5578
做出	-5579
雪菜	-5580
没有那么	-5581
带鱼	-5582
费用	-5583
价格比	-5584
单点的	-5585
那么多人	-5586
都很新鲜	-5587
還有	-5588
加水	-5589
也很少	-5590
也很喜欢	-5591
▁正	-5592
很旺	-5593
环保	-5594
跳舞	-5595
另外一个	-5596
就不说了	-5597
田鸡	-5598
台上	-5599
人性化	-5600
点这个	-5601
了啊	-5602
分割	-5603
嘎嘎	-5604
等的	-5605
西芹	-5606
剪头发	-5607
很开心	-5608
感叹	-5609
疯狂	-5610
感觉挺	-5611
都不太	-5612
的小姑娘	-5613
回锅肉	-5614
然后再	-5615
窗户	-5616
荷叶	-5617
咖啡厅	-5618
如果有	-5619
八爪	-5620
牛丸	-5621
盐水	-5622
胜在	-5623
是自己	-5624
刚才	-5625
前往	-5626
菲力	-5627
▁炸	-5628
哪儿	-5629
好感	-5630
美丽	-5631
了一杯	-5632
一包	-5633
单词	-5634
屋子	-5635
精美	-5636
在旁边	-5637
这家了	-5638
大声	-5639
如下	-5640
定食	-5641
精油	-5642
给她	-5643
阴功	-5644
不停的	-5645
产生	-5646
着了	-5647
在这边	-5648
有点偏	-5649
个人点了	-5650
app	-5651
自制的	-5652
一回	-5653
奥尔	-5654
二楼的	-5655
油麦菜	-5656
老板的	-5657
▁服务态度	-5658
▁两	-5659
太过	-5660
够味	-5661
▁本人	-5662
才找到	-5663
碗里	-5664
家了	-5665
问问	-5666
半年	-5667
荷包	-5668
不论	-5669
忽然	-5670
机子	-5671
莲藕	-5672
更多的	-5673
草鱼	-5674
赠送的	-5675
EN	-5676
火了	-5677
石头	-5678
不习惯	-5679
也不太	-5680
透明的	-5681
五角	-5682
玩玩	-5683
走进	-5684
塑料袋	-5685
挺喜欢	-5686
骨汤	-5687
龙之梦	-5688
买的时候	-5689
去过几次	-5690
成品	-5691
很正宗	-5692
让我觉得	-5693
多次	-5694
硬件	-5695
黑森林	-5696
和他	-5697
很老	-5698
奥尔良	-5699
▁金	-5700
的也	-5701
东西都	-5702
空心菜	-5703
太好吃了	-5704
又香	-5705
豆干	-5706
无意中	-5707
同意	-5708
地板	-5709
才上	-5710
教练	-5711
浓稠	-5712
私密	-5713
就喜欢	-5714
宿舍	-5715
尽量	-5716
虾的	-5717
足足	-5718
他们说	-5719
写了	-5720
凯撒	-5721
影院	-5722
搬到	-5723
鼠标	-5724
男女	-5725
积极	-5726
▁咖喱	-5727
有名的	-5728
又要	-5729
叫做	-5730
屋里	-5731
抽烟	-5732
风格的	-5733
还是没有	-5734
黑色的	-5735
我和朋友	-5736
比较好的	-5737
北海	-5738
情愿	-5739
惊讶	-5740
假的	-5741
收获	-5742
不过这个	-5743
光线	-5744
沿着	-5745
给了我	-5746
之中	-5747
文学	-5748
方的	-5749
规定	-5750
弟弟	-5751
小妹	-5752
▁第二	-5753
▁F	-5754
爆肚	-5755
牛肉和	-5756
走进去	-5757
边上的	-5758
人多的时候	-5759
不知道是什么	-5760
我喜欢吃	-5761
就是觉得	-5762
还是蛮多的	-5763
仅仅	-5764
炖蛋	-5765
膻味	-5766
点就	-5767
细心	-5768
腐乳	-5769
总店	-5770
这套	-5771
时蔬	-5772
的高	-5773
陈旧	-5774
不过是	-5775
味道一般般	-5776
三角	-5777
大人	-5778
鸡尾	-5779
又好吃	-5780
价的	-5781
原先	-5782
好找	-5783
寻找	-5784
要命	-5785
饭团	-5786
go	-5787
一周	-5788
果断	-5789
那个什么	-5790
台子	-5791
尝过	-5792
折的	-5793
搞定	-5794
里头	-5795
葡萄干	-5796
一颗	-5797
光顾的	-5798
热乎乎的	-5799
五六	-5800
值了	-5801
板筋	-5802
生产	-5803
没有吃	-5804
蛋包饭	-5805
我最喜欢	-5806
这里的菜	-5807
动了	-5808
鸡爪	-5809
哈尔滨	-5810
分为	-5811
坐到	-5812
悦城	-5813
自行	-5814
靠谱	-5815
不起眼	-5816
起来的	-5817
味道很一般	-5818
也满	-5819
刀鱼	-5820
多年	-5821
徐家	-5822
打牌	-5823
是非常	-5824
可能是我	-5825
牛肉汤	-5826
▁他们家的	-5827
正规	-5828
蛋卷	-5829
说有	-5830
都是很	-5831
还点了个	-5832
▁特别是	-5833
骨肉相连	-5834
人啊	-5835
大师	-5836
熟食	-5837
▁这点	-5838
不辣的	-5839
边吃边	-5840
欢喜	-5841
要死	-5842
面对	-5843
古色古	-5844
盘子里	-5845
MA	-5846
们的	-5847
刚开	-5848
刀削面	-5849
前面的	-5850
有点慢	-5851
的很好	-5852
上当	-5853
基本是	-5854
不但	-5855
吞拿	-5856
场的	-5857
東西	-5858
去吃饭	-5859
很油	-5860
狗肉	-5861
紫米	-5862
不耐烦	-5863
叫外卖	-5864
吉野家	-5865
有点多	-5866
具有	-5867
分熟	-5868
相关	-5869
绿的	-5870
暴风	-5871
才上来	-5872
酸酸辣	-5873
做得很	-5874
总感觉	-5875
没见过	-5876
蛋糕的	-5877
明的	-5878
配送	-5879
吃的人	-5880
每次来	-5881
糯糯的	-5882
冬阴功	-5883
▁有时候	-5884
▁去的时候	-5885
粉的	-5886
▁羊肉	-5887
也得	-5888
前的	-5889
沙冰	-5890
烫的	-5891
辣肉	-5892
▁直接	-5893
小炒肉	-5894
虽然没有	-5895
中年	-5896
挨着	-5897
粽子	-5898
茶位	-5899
有优惠	-5900
火锅的	-5901
重新装修	-5902
手艺	-5903
很到位	-5904
吵闹	-5905
很给力	-5906
就一般了	-5907
大包	-5908
成熟	-5909
泡沫	-5910
点左	-5911
杏鲍菇	-5912
炒牛河	-5913
人满为患	-5914
点钟	-5915
比较慢	-5916
外景	-5917
开发	-5918
甜虾	-5919
糖水	-5920
▁分量	-5921
口味一般	-5922
填饱肚子	-5923
就着	-5924
肉食	-5925
别人的	-5926
日期	-5927
花样	-5928
超级好	-5929
炖的	-5930
告诉你	-5931
记的	-5932
针对	-5933
锡纸	-5934
的可以	-5935
不是很好吃	-5936
la	-5937
冰镇	-5938
底的	-5939
绵绵	-5940
玉米烙	-5941
还蛮多的	-5942
那的	-5943
经济实惠	-5944
博物	-5945
别的菜	-5946
杨枝甘露	-5947
宝贝	-5948
门店	-5949
倒是挺	-5950
味道嘛	-5951
中药	-5952
扣肉	-5953
罗宋	-5954
视觉	-5955
到我们	-5956
想起了	-5957
体检	-5958
全麦	-5959
大杯	-5960
玩具	-5961
很实在	-5962
口味不错	-5963
吃肉	-5964
酱爆	-5965
醇厚	-5966
其他店	-5967
真心的	-5968
也很一般	-5969
去找	-5970
咸味	-5971
后来就	-5972
玉米汁	-5973
还是在	-5974
街边	-5975
葱油饼	-5976
而知	-5977
方面的	-5978
千岛	-5979
好有	-5980
比不上	-5981
给大家	-5982
大门	-5983
荞麦	-5984
▁或者	-5985
是不会	-5986
味道有点	-5987
效率	-5988
进去后	-5989
韩国人	-5990
强调	-5991
当当	-5992
还要了	-5993
舞台	-5994
一问	-5995
厚厚	-5996
最高	-5997
标志	-5998
用过	-5999
价格是	-6000
观点	-6001
红红的	-6002
▁前几天	-6003
回味无穷	-6004
打理	-6005
某天	-6006
公交车	-6007
▁绝对	-6008
布朗尼	-6009
老板是	-6010
▁路过	-6011
还以为是	-6012
不是很新鲜	-6013
你说	-6014
后者	-6015
▁完全	-6016
我当时	-6017
可以接受	-6018
三文鱼刺身	-6019
喝粥	-6020
就上	-6021
越南	-6022
比较早	-6023
拿出	-6024
私房	-6025
已经很	-6026
看菜单	-6027
俺们	-6028
海苔	-6029
豆腐干	-6030
就是那个	-6031
想点	-6032
带有	-6033
是和	-6034
间的	-6035
停车位	-6036
好朋友	-6037
就是没有	-6038
苦瓜	-6039
不高兴	-6040
HOHO	-6041
▁一开始	-6042
也不是很多	-6043
喜好	-6044
炸得	-6045
充电	-6046
银耳	-6047
咖啡馆	-6048
安静的	-6049
徐家汇	-6050
让我失望	-6051
下手	-6052
河虾	-6053
也只有	-6054
地方不大	-6055
星的	-6056
介绍了	-6057
土司	-6058
没去	-6059
薄饼	-6060
▁这种	-6061
天然	-6062
车位	-6063
静的	-6064
有这么	-6065
十五	-6066
之所以	-6067
代金券	-6068
元一碗	-6069
午餐肉	-6070
地下一层	-6071
的时候去	-6072
腰花	-6073
辣椒酱	-6074
▁无	-6075
主角	-6076
叫的	-6077
带子	-6078
两位	-6079
中央	-6080
碎的	-6081
鸭架	-6082
东南亚	-6083
肥美	-6084
▁偶尔	-6085
一顿饭	-6086
的心情	-6087
服务不错	-6088
的券	-6089
中间的	-6090
拿到手	-6091
味道很浓	-6092
专卖	-6093
有家	-6094
有趣	-6095
的所以	-6096
服务一般	-6097
匆匆	-6098
尿虾	-6099
男士	-6100
多一点	-6101
比较实惠	-6102
________________	-6103
工具	-6104
鱼子	-6105
川菜馆	-6106
烧味	-6107
白开水	-6108
▁第二次	-6109
性价比高	-6110
四种	-6111
客观	-6112
饭店的	-6113
也不怎么	-6114
先去	-6115
了但是	-6116
考虑到	-6117
字体	-6118
搭理	-6119
自家	-6120
海鲜的	-6121
完后	-6122
都点	-6123
很简单	-6124
油炸的	-6125
▁N	-6126
买书	-6127
暂时	-6128
青豆	-6129
王府	-6130
▁不像	-6131
▁旁边	-6132
上次去	-6133
习惯了	-6134
ON	-6135
上个	-6136
往里	-6137
手指	-6138
提升	-6139
整体感觉	-6140
ry	-6141
太不	-6142
白水	-6143
精华	-6144
被人	-6145
家里人	-6146
最主要	-6147
榨菜	-6148
有一番	-6149
热热的	-6150
物有所	-6151
下次还会	-6152
两片	-6153
果酱	-6154
结构	-6155
是为了	-6156
甜甜圈	-6157
还是比较喜欢	-6158
就连	-6159
得来	-6160
蟹子	-6161
就送	-6162
腊味	-6163
要看	-6164
隐蔽	-6165
难吃了	-6166
大气	-6167
演出	-6168
钱了	-6169
几年前	-6170
周围的	-6171
带我们	-6172
▁W	-6173
全都	-6174
哪家	-6175
好味	-6176
繁华	-6177
渐渐	-6178
青年	-6179
八爪鱼	-6180
生意好	-6181
色拉酱	-6182
就看	-6183
办公室	-6184
和妈妈	-6185
中午去的	-6186
沾着	-6187
顺序	-6188
暴风雪	-6189
取消	-6190
好东西	-6191
节假日	-6192
吃了好多	-6193
▁不知道是不是	-6194
if	-6195
塌糊涂	-6196
出乎意料	-6197
全程	-6198
完成	-6199
都蛮	-6200
的印象	-6201
在亚马逊	-6202
人士	-6203
巷子	-6204
道的	-6205
回来了	-6206
虾饺皇	-6207
面包店	-6208
都还可以	-6209
整整	-6210
糊糊	-6211
过节	-6212
避免	-6213
鄙视	-6214
不记得	-6215
味道了	-6216
烤牛肉	-6217
芦荟	-6218
新天地	-6219
菜的量	-6220
设计的	-6221
还是蛮好的	-6222
山西	-6223
热饮	-6224
鲜甜	-6225
这两个	-6226
不过就是	-6227
过桥米线	-6228
单纯	-6229
每年	-6230
蓝色	-6231
很温馨	-6232
没有点	-6233
小肥羊	-6234
索性	-6235
震撼	-6236
大众点评	-6237
金钱	-6238
不行了	-6239
了一天	-6240
豆腐汤	-6241
两桌	-6242
快点	-6243
散步	-6244
欢乐	-6245
茄汁	-6246
每一个	-6247
好吃多了	-6248
蔬菜拼盘	-6249
明虾	-6250
配有	-6251
鸡胗	-6252
▁比如	-6253
是真的	-6254
伤心	-6255
何况	-6256
一口气	-6257
世博	-6258
山东	-6259
海螺	-6260
烂了	-6261
照烧	-6262
我也是	-6263
自己动手	-6264
显眼	-6265
炸鸡	-6266
状的	-6267
美甲	-6268
▁至于	-6269
博物馆	-6270
相差	-6271
说不上	-6272
下回	-6273
只吃	-6274
呢个	-6275
糖的	-6276
远远	-6277
部门	-6278
也不用	-6279
其它的	-6280
不过价格	-6281
充分	-6282
卖场	-6283
味道么	-6284
情况下	-6285
腾腾的	-6286
▁这家的	-6287
BB	-6288
动的	-6289
年龄	-6290
才行	-6291
拒绝	-6292
摆放	-6293
▁整个	-6294
就是这样	-6295
拿破	-6296
牛尾	-6297
▁各种	-6298
不好找	-6299
的人气	-6300
大同	-6301
比的	-6302
三个菜	-6303
要排队	-6304
不是很辣	-6305
服务员还	-6306
大饼	-6307
清酒	-6308
连续	-6309
▁好像是	-6310
一看就是	-6311
展示	-6312
烧得	-6313
我比较	-6314
酸豆角	-6315
▁送	-6316
好意思	-6317
我们也	-6318
本来以为	-6319
▁二	-6320
而来	-6321
▁鸡肉	-6322
有个小	-6323
服务也	-6324
的意思	-6325
US	-6326
山路	-6327
离谱	-6328
表达	-6329
好看的	-6330
有一家	-6331
流口水	-6332
然后就是	-6333
现在已经	-6334
IC	-6335
ot	-6336
导游	-6337
太大的	-6338
多宝	-6339
走走	-6340
收银员	-6341
一声	-6342
么有	-6343
国营	-6344
地说	-6345
大妈	-6346
济南	-6347
炒得	-6348
键盘	-6349
学生证	-6350
最贵的	-6351
人意	-6352
听见	-6353
家长	-6354
悠闲	-6355
▁平时	-6356
感觉没有	-6357
女友	-6358
格局	-6359
课程	-6360
鸡公	-6361
这么大	-6362
店名	-6363
瓶子	-6364
麦茶	-6365
系列的	-6366
辣椒油	-6367
鸡尾酒	-6368
环境很不错	-6369
喝水	-6370
毛病	-6371
百姓	-6372
卷心菜	-6373
永和	-6374
做出来	-6375
我真的	-6376
都是用	-6377
有一点点	-6378
价格也不贵	-6379
倒了	-6380
就别	-6381
正餐	-6382
道歉	-6383
很下饭	-6384
晚上去的	-6385
多士	-6386
深入	-6387
钢琴	-6388
吃饭了	-6389
特价的	-6390
午市	-6391
情节	-6392
打个	-6393
春天	-6394
这间	-6395
朋友聚会	-6396
打发	-6397
青笋	-6398
等了很久	-6399
人也	-6400
海报	-6401
菜系	-6402
▁很好	-6403
地三鲜	-6404
收费的	-6405
吓人	-6406
西班	-6407
行业	-6408
西班牙	-6409
▁开	-6410
对方	-6411
果仁	-6412
煎蛋	-6413
调整	-6414
酸梅汁	-6415
冰乐	-6416
▁个人觉得	-6417
锅仔	-6418
黄桃	-6419
推荐菜	-6420
▁哈哈哈	-6421
个人吃了	-6422
▁四	-6423
业务	-6424
宴会	-6425
带来	-6426
也很嫩	-6427
如果不	-6428
差不多的	-6429
不过也	-6430
一般般了	-6431
ve	-6432
偏淡	-6433
国庆	-6434
▁很香	-6435
一道菜	-6436
但不	-6437
年初	-6438
豉汁	-6439
味道还	-6440
还是去	-6441
觉得有点	-6442
ie	-6443
▁以	-6444
▁哈	-6445
的一块	-6446
值得一试	-6447
很有食欲	-6448
很强	-6449
园的	-6450
有點	-6451
牙齿	-6452
se	-6453
自选	-6454
▁面包	-6455
作者的	-6456
只记得	-6457
是我的	-6458
低音	-6459
利用	-6460
心中	-6461
给个	-6462
随时	-6463
了一块	-6464
注重	-6465
鸡皮	-6466
不好喝	-6467
就不会	-6468
分钟左右	-6469
me	-6470
两边	-6471
劲的	-6472
大概有	-6473
海带丝	-6474
端上来的时候	-6475
EL	-6476
在小	-6477
正式	-6478
软软	-6479
亲爱的	-6480
工作餐	-6481
肥而不腻	-6482
问她	-6483
牛羊肉	-6484
叫来	-6485
抱怨	-6486
反正是	-6487
够大	-6488
宵夜	-6489
换换	-6490
偏僻	-6491
最后还	-6492
▁R	-6493
了大	-6494
▁态度	-6495
疙瘩汤	-6496
的照片	-6497
剪发	-6498
感觉和	-6499
很喜欢的	-6500
真不知道	-6501
蔬菜色拉	-6502
又说	-6503
多元	-6504
一个什么	-6505
真是不错	-6506
是我的最爱	-6507
的时候去的	-6508
好玩	-6509
▁上菜	-6510
还好吧	-6511
是不错的	-6512
这种地方	-6513
一记	-6514
不做	-6515
主人	-6516
每周	-6517
▁团购	-6518
烧仙草	-6519
不一样的	-6520
的人很多	-6521
少许	-6522
拼命	-6523
然后是	-6524
理不理	-6525
加班	-6526
微博	-6527
▁饭	-6528
分明	-6529
粒粒	-6530
豆苗	-6531
辣炒	-6532
这回	-6533
亮的	-6534
希望能	-6535
人太多了	-6536
超赞	-6537
香干	-6538
美容师	-6539
众多	-6540
咸了	-6541
拌的	-6542
老年	-6543
里面还	-6544
弄堂	-6545
落座	-6546
▁位置	-6547
去这家	-6548
非常多	-6549
几乎没有	-6550
所以觉得	-6551
半夜	-6552
好一点	-6553
我就不	-6554
老婆饼	-6555
去吃的时候	-6556
太硬	-6557
年夜	-6558
芥蓝	-6559
训练	-6560
古典	-6561
室外	-6562
身的	-6563
部长	-6564
镜子	-6565
一大盘	-6566
没味道	-6567
但是价格	-6568
还是什么	-6569
蜡烛	-6570
面了	-6571
香香	-6572
过来吃	-6573
去了一次	-6574
走廊	-6575
野菜	-6576
也很新鲜	-6577
我们两个	-6578
糖醋小排	-6579
兑换	-6580
咸肉	-6581
坐满	-6582
买的是	-6583
南瓜饼	-6584
着急	-6585
结账时	-6586
感觉比较	-6587
环境和服务	-6588
他是	-6589
三国	-6590
不觉	-6591
吃吧	-6592
旋转	-6593
不错哦	-6594
慢慢的	-6595
味增	-6596
餐桌	-6597
▁好吧	-6598
有人说	-6599
没什么特别的	-6600
冷饮	-6601
然而	-6602
鱼是	-6603
噱头	-6604
消失	-6605
店家的	-6606
环境比较	-6607
bf	-6608
很糯	-6609
味道就	-6610
班车	-6611
等候	-6612
色调	-6613
▁却	-6614
卡座	-6615
政治	-6616
略显	-6617
拿破仑	-6618
的最爱	-6619
能接受	-6620
黑芝麻	-6621
GO	-6622
山楂	-6623
HI	-6624
就点	-6625
齐了	-6626
咬一口	-6627
我发现	-6628
兔子	-6629
大份	-6630
婚庆	-6631
特产	-6632
吃过几次	-6633
▁哇	-6634
出租	-6635
炒肉	-6636
店里面	-6637
咖喱牛腩	-6638
报纸	-6639
的呀	-6640
视频	-6641
下次有机会	-6642
一一	-6643
创新	-6644
唔知	-6645
座椅	-6646
说下	-6647
不觉得	-6648
也很快	-6649
听了	-6650
墙壁	-6651
不那么	-6652
一般一般	-6653
微甜	-6654
是没	-6655
长条	-6656
▁确实	-6657
一分货	-6658
的东东	-6659
价格不贵	-6660
就没有了	-6661
爱理不理	-6662
压力	-6663
为我	-6664
出色	-6665
包了	-6666
油爆	-6667
见识	-6668
讨论	-6669
、、、	-6670
在那边	-6671
的牌子	-6672
原谅	-6673
转转	-6674
就买	-6675
杯具	-6676
等我们	-6677
最重要的是	-6678
小鱼	-6679
我把	-6680
点上	-6681
跟不上	-6682
喜欢吃的	-6683
墨西	-6684
肉皮	-6685
问他	-6686
的一碗	-6687
旧的	-6688
科学	-6689
等于	-6690
羽毛	-6691
限制	-6692
鱼蛋	-6693
-----	-6694
很低	-6695
究竟	-6696
▁两个	-6697
了好久	-6698
西瓜汁	-6699
就是感觉	-6700
▁拿	-6701
鳝鱼	-6702
不及待	-6703
就是要	-6704
点东西	-6705
内心	-6706
难喝	-6707
之间的	-6708
分割线	-6709
吃晚饭	-6710
墨西哥	-6711
吃到一半	-6712
吃到嘴里	-6713
推荐一下	-6714
怪味	-6715
指导	-6716
这位	-6717
会比较	-6718
都好吃	-6719
令我	-6720
就是有点	-6721
抄手	-6722
起的	-6723
闻着	-6724
环境也不错	-6725
付了	-6726
天下	-6727
很爱	-6728
▁我想	-6729
▁每天	-6730
还给	-6731
了一遍	-6732
一个地方	-6733
不算便宜	-6734
迫不及待	-6735
】【	-6736
白饭	-6737
出名的	-6738
太贵了	-6739
OS	-6740
看在	-6741
所以对	-6742
▁他们家	-6743
不比	-6744
兰州	-6745
山的	-6746
轻轻	-6747
于是乎	-6748
蕨根粉	-6749
一扎	-6750
搅拌	-6751
感觉好	-6752
亚马逊的	-6753
▁I	-6754
江路	-6755
人还是	-6756
暖暖的	-6757
什么什么	-6758
种类很多	-6759
害怕	-6760
在外	-6761
少点	-6762
提了	-6763
泉水	-6764
粉蒸	-6765
上来后	-6766
这次的	-6767
很远	-6768
高汤	-6769
不怎么好吃	-6770
恐怕	-6771
辣油	-6772
服務員	-6773
那样的	-6774
太久	-6775
奇的	-6776
幸亏	-6777
羡慕	-6778
秋刀鱼	-6779
诱人的	-6780
每次都会	-6781
真的很一般	-6782
唔多	-6783
瑜伽	-6784
DIY	-6785
不过这	-6786
中国的	-6787
吞拿鱼	-6788
第三次	-6789
好食	-6790
战斗	-6791
打完	-6792
最近的	-6793
赶时间	-6794
起眼	-6795
很亲切	-6796
星冰乐	-6797
算下来	-6798
辣子鸡	-6799
光临	-6800
南路	-6801
差了点	-6802
什麽	-6803
儿了	-6804
提议	-6805
热干	-6806
软糯	-6807
▁加上	-6808
有不少	-6809
芝士焗	-6810
人比较多	-6811
但是这个	-6812
不成	-6813
尺寸	-6814
摆着	-6815
质地	-6816
鱼生	-6817
婚纱照	-6818
试一下	-6819
是一本	-6820
不过我们	-6821
三五	-6822
光盘	-6823
茼蒿	-6824
▁妈妈	-6825
柠檬水	-6826
就是因为	-6827
人流	-6828
压抑	-6829
少少	-6830
送餐	-6831
其他人	-6832
奶香味	-6833
正常的	-6834
进去的时候	-6835
先上	-6836
小学	-6837
在新	-6838
了所以	-6839
点一份	-6840
▁在这里	-6841
音响效果	-6842
给人的感觉	-6843
▁也许	-6844
》、《	-6845
一次是	-6846
环境和	-6847
茶味	-6848
从来没	-6849
打折的	-6850
看到过	-6851
都不能	-6852
个服务员	-6853
拉拉	-6854
神秘	-6855
稻香	-6856
咖喱鸡	-6857
这本书的	-6858
▁坐	-6859
乐趣	-6860
就叫	-6861
麻利	-6862
为何	-6863
夹着	-6864
拔丝	-6865
吃到后面	-6866
新开的店	-6867
没有特别	-6868
雪梨	-6869
一般都	-6870
圣诞节	-6871
就吃了	-6872
ir	-6873
▁恩	-6874
圆桌	-6875
虚传	-6876
不算贵	-6877
也不好吃	-6878
我有	-6879
验证	-6880
时不时	-6881
烤羊排	-6882
跟我们	-6883
去的地方	-6884
公主	-6885
火龙	-6886
听说是	-6887
的一份	-6888
家伙	-6889
就拿	-6890
根本没	-6891
比较方便	-6892
拼桌	-6893
不怎么好	-6894
做的好吃	-6895
水了	-6896
这口	-6897
来不及	-6898
还真的	-6899
▁最喜欢	-6900
感觉很不错	-6901
还是挺不错的	-6902
外脆	-6903
死我了	-6904
看见了	-6905
酒酿圆子	-6906
到那里	-6907
里面的肉	-6908
▁环境不错	-6909
再多	-6910
可怕	-6911
护士	-6912
气愤	-6913
理想	-6914
脂肪	-6915
北海道	-6916
很地道	-6917
更好的	-6918
感觉还是	-6919
▁E	-6920
▁别	-6921
会议	-6922
咸淡	-6923
每家	-6924
爽滑	-6925
比较便宜	-6926
都不一样	-6927
▁红	-6928
则是	-6929
美发	-6930
腥气	-6931
飞饼	-6932
一小碗	-6933
凉凉的	-6934
换成了	-6935
还有小	-6936
很多地方	-6937
好好好好好好好好好好好好好好好好	-6938
就当	-6939
料的	-6940
▁夏天	-6941
我要的	-6942
的时候会	-6943
多种	-6944
松鼠	-6945
米酒	-6946
静安	-6947
做的是	-6948
来说说	-6949
超喜欢	-6950
也很入味	-6951
就没什么	-6952
到这	-6953
处的	-6954
数码	-6955
菜吧	-6956
部的	-6957
很热情的	-6958
记不清了	-6959
人吃	-6960
从头	-6961
光的	-6962
夜景	-6963
带上	-6964
一般般啦	-6965
场面	-6966
就只	-6967
阵子	-6968
▁至少	-6969
了一小	-6970
前一天	-6971
可以选	-6972
游泳池	-6973
名不虚传	-6974
乐园	-6975
程序	-6976
者的	-6977
问你	-6978
家里的	-6979
鸡脆骨	-6980
環境	-6981
站着	-6982
认真的	-6983
中秋	-6984
太厚	-6985
猪脚	-6986
身份	-6987
这个东西	-6988
即便	-6989
五角场	-6990
第二个	-6991
说的是	-6992
还不够	-6993
high	-6994
同学聚会	-6995
比较新鲜	-6996
味了	-6997
外形	-6998
得知	-6999
活的	-7000
芋圆	-7001
下去了	-7002
不太好吃	-7003
也不错的	-7004
靠窗的位置	-7005
可选	-7006
清洁	-7007
对于我	-7008
缺点就是	-7009
冷盘	-7010
安慰	-7011
正是	-7012
没敢	-7013
理念	-7014
辈子	-7015
▁肉质	-7016
的结果	-7017
不知道什么	-7018
入座	-7019
面子	-7020
▁之后	-7021
玉米粒	-7022
▁第一次吃	-7023
门外	-7024
上面是	-7025
不过瘾	-7026
进去之后	-7027
差异	-7028
闸蟹	-7029
三样	-7030
年会	-7031
记不住	-7032
还是很有	-7033
好歹	-7034
就近	-7035
情绪	-7036
打扫	-7037
又去了	-7038
三天	-7039
五折	-7040
以往	-7041
复古	-7042
如同	-7043
见了	-7044
的一款	-7045
面包房	-7046
TX	-7047
全的	-7048
开会	-7049
滋补	-7050
练习	-7051
走路	-7052
包装的	-7053
不会再去	-7054
玩笑	-7055
的皮	-7056
同学说	-7057
石锅饭	-7058
好多好多	-7059
不灵	-7060
出发	-7061
不会有	-7062
到底是	-7063
去看看	-7064
我们俩	-7065
白白的	-7066
的时候发现	-7067
容器	-7068
差评	-7069
条鱼	-7070
很贴心	-7071
也蛮好的	-7072
之类的东西	-7073
在做	-7074
帮衬	-7075
正确	-7076
西路	-7077
特特	-7078
白领	-7079
▁上海	-7080
我都不	-7081
罗宋汤	-7082
art	-7083
一大堆	-7084
搜索	-7085
相似	-7086
三两	-7087
占了	-7088
去逛	-7089
宁愿	-7090
浓厚	-7091
肉嫩	-7092
相当好	-7093
真想	-7094
一家人	-7095
也没啥	-7096
和牛肉	-7097
情人节	-7098
我们去的	-7099
RA	-7100
多了点	-7101
麻辣的	-7102
▁配	-7103
合我	-7104
长春	-7105
饭量	-7106
也没人	-7107
都没了	-7108
尝了一口	-7109
小点	-7110
也就不	-7111
做好了	-7112
的第一	-7113
美味啊	-7114
到处都是	-7115
大头	-7116
行为	-7117
解腻	-7118
那份	-7119
隔音	-7120
长长的	-7121
不着	-7122
个的	-7123
他們	-7124
放假	-7125
烫发	-7126
▁只要	-7127
▁整体	-7128
▁竟然	-7129
酥酥的	-7130
服务态度很好	-7131
妙的	-7132
雪蛤	-7133
日本豆腐	-7134
CD	-7135
▁同	-7136
冲的	-7137
广式	-7138
长沙	-7139
鸡汁	-7140
▁土豆	-7141
▁此	-7142
别墅	-7143
鲫鱼	-7144
的招牌	-7145
刨冰	-7146
夜晚	-7147
奥利	-7148
看着就	-7149
我们自己	-7150
不忘	-7151
手卷	-7152
不算大	-7153
晚上的	-7154
很多很多	-7155
尖椒	-7156
就一	-7157
朝鲜	-7158
都得	-7159
难免	-7160
鸡心	-7161
找个地方	-7162
一起去吃的	-7163
奶油蘑菇汤	-7164
凳子	-7165
呜呜	-7166
以前是	-7167
却没有	-7168
又点了	-7169
▁干	-7170
▁炒	-7171
接到	-7172
提到	-7173
涮肉	-7174
鳝丝	-7175
正好是	-7176
走过去	-7177
选的是	-7178
专家	-7179
伙计	-7180
的不行	-7181
硬硬的	-7182
门口有	-7183
反正就是	-7184
爸爸妈妈	-7185
觉得不错	-7186
准确	-7187
心疼	-7188
以上的	-7189
拉肚子	-7190
看到这家店	-7191
一来	-7192
客家	-7193
洗发	-7194
大酱汤	-7195
濑尿虾	-7196
也还	-7197
感的	-7198
话梅	-7199
说这	-7200
差远了	-7201
肉很嫩	-7202
两盘	-7203
甜腻	-7204
今天的	-7205
以后会	-7206
便宜啊	-7207
就不是	-7208
荷包蛋	-7209
的优惠券	-7210
不油腻	-7211
去这里	-7212
环境是	-7213
LA	-7214
兴致	-7215
对的	-7216
照相	-7217
能有	-7218
▁一点	-7219
感觉的	-7220
特有的	-7221
都是些	-7222
下楼	-7223
懂的	-7224
所望	-7225
漫画	-7226
▁自从	-7227
从前	-7228
屈臣	-7229
消毒	-7230
维修	-7231
多宝鱼	-7232
纳闷	-7233
说好	-7234
雅致	-7235
愉快的	-7236
加汤	-7237
盖子	-7238
蛋皮	-7239
高端	-7240
麻油	-7241
孩子的	-7242
女服务员	-7243
写真	-7244
北路	-7245
数据	-7246
看我	-7247
▁也就	-7248
▁开在	-7249
~,	-7250
咱们	-7251
山人	-7252
小吃的	-7253
应该算是	-7254
ff	-7255
▁。	-7256
素鸡	-7257
的生活	-7258
固定	-7259
崩溃	-7260
教材	-7261
跑来	-7262
的分量	-7263
LE	-7264
城隍	-7265
移动	-7266
胖胖	-7267
舌头	-7268
咖喱饭	-7269
很高的	-7270
才去的	-7271
的要死	-7272
两年	-7273
手感	-7274
礼品	-7275
虾子	-7276
酱鸭	-7277
太油了	-7278
一笼	-7279
换的	-7280
椰奶	-7281
res	-7282
比较重	-7283
的装修	-7284
能吃的	-7285
▁甜	-7286
像我	-7287
去拿	-7288
点好	-7289
感受到	-7290
服务也不错	-7291
一帮	-7292
原版	-7293
图案	-7294
尔玛	-7295
开机	-7296
开来	-7297
是老	-7298
规矩	-7299
迎宾	-7300
叉烧包	-7301
▁还有个	-7302
▁离家	-7303
但是在	-7304
和环境	-7305
点以后	-7306
▁三文鱼	-7307
也蛮多的	-7308
将就	-7309
当我	-7310
改造	-7311
很满足	-7312
档次的	-7313
干菜	-7314
算的	-7315
居然还	-7316
差差差差	-7317
排队的人	-7318
本来就是	-7319
▁_	-7320
办理	-7321
打着	-7322
爱上	-7323
酒味	-7324
▁不能	-7325
左右的	-7326
本身的	-7327
要注意	-7328
异常	-7329
很腻	-7330
还是没	-7331
也挺好的	-7332
后厨	-7333
在意	-7334
就这	-7335
果冻	-7336
涮锅	-7337
面膜	-7338
一个字	-7339
中午的	-7340
外婆家	-7341
奥利奥	-7342
全面	-7343
奇诺	-7344
装在	-7345
要个	-7346
个人的	-7347
工作室	-7348
图个	-7349
尝试过	-7350
本以为	-7351
指示	-7352
田螺	-7353
很多了	-7354
抵用券	-7355
生煎包	-7356
五星	-7357
和肉	-7358
技巧	-7359
故意	-7360
柠檬汁	-7361
要发票	-7362
吃的很饱	-7363
左边	-7364
松子	-7365
淡淡	-7366
素食	-7367
偏高	-7368
痕迹	-7369
脸色	-7370
足了	-7371
连着	-7372
我最爱	-7373
打招呼	-7374
▁看起来	-7375
几乎都是	-7376
点了几个	-7377
不过我觉得	-7378
冰冰	-7379
带到	-7380
指望	-7381
我认为	-7382
nice	-7383
一个服务员	-7384
合作	-7385
对待	-7386
片子	-7387
还挺多的	-7388
还蛮好的	-7389
多是	-7390
小异	-7391
所在	-7392
新意	-7393
答案	-7394
再去吃	-7395
到手	-7396
可想	-7397
很肥	-7398
▁尤其	-7399
屈臣氏	-7400
方便面	-7401
要自己	-7402
水煮牛肉	-7403
看了点评	-7404
到后来	-7405
海鲜饭	-7406
羽毛球	-7407
莫名其	-7408
味蕾	-7409
梅菜	-7410
的太	-7411
空位	-7412
脖子	-7413
了一盘	-7414
原则	-7415
哪怕	-7416
香啊	-7417
我以为	-7418
味觉	-7419
回转	-7420
大道	-7421
抬头	-7422
肯定会	-7423
临走	-7424
酒家	-7425
▁人家	-7426
在这儿	-7427
很过瘾	-7428
有些小	-7429
羊肉的	-7430
▁这是我	-7431
以后有机会	-7432
▁海	-7433
菌汤	-7434
▁下面	-7435
才可以	-7436
不止	-7437
八折	-7438
我爱	-7439
白肉	-7440
的油	-7441
羊汤	-7442
挺香的	-7443
来尝尝	-7444
的故事	-7445
说我们	-7446
超级多	-7447
别有一番	-7448
吃啊	-7449
实现	-7450
年头	-7451
翻了	-7452
这时	-7453
的牛肉	-7454
放了很多	-7455
id	-7456
味多	-7457
平平	-7458
会更好	-7459
叉烧酥	-7460
觉得好	-7461
都点了	-7462
预约了	-7463
味道也不	-7464
等了好久	-7465
还算比较	-7466
遗憾的是	-7467
莲花	-7468
几根	-7469
很烂	-7470
百盛	-7471
连接	-7472
似乎是	-7473
比一般的	-7474
▁味道还不错	-7475
點了	-7476
了我的	-7477
卓越的	-7478
比一般	-7479
▁看上去	-7480
▁请	-7481
瓦罐	-7482
牛百叶	-7483
就在这里	-7484
还蛮好吃的	-7485
周四	-7486
红火	-7487
能把	-7488
大悦城	-7489
所以还是	-7490
浓油	-7491
膏蟹	-7492
苦的	-7493
过分	-7494
和一些	-7495
我现在	-7496
排骨汤	-7497
著名的	-7498
▁喝	-7499
回民	-7500
炉子	-7501
办了张	-7502
提供的	-7503
去得	-7504
我要了	-7505
这个价	-7506
》《	-7507
写字	-7508
哄哄	-7509
物品	-7510
英国	-7511
lg	-7512
单间	-7513
围着	-7514
推荐下	-7515
收到货	-7516
超级喜欢	-7517
pp	-7518
京东	-7519
听说过	-7520
那么的	-7521
时期	-7522
罐头	-7523
老远	-7524
太一般了	-7525
忍受	-7526
演唱	-7527
超爱	-7528
印象比较	-7529
日的	-7530
怎么会	-7531
就是环境	-7532
▁辣	-7533
身材	-7534
都还	-7535
▁名字	-7536
的设计	-7537
萝卜糕	-7538
量不大	-7539
这家餐厅	-7540
目标	-7541
责任	-7542
▁突然	-7543
的一条	-7544
▁不是很	-7545
结果发现	-7546
里面都是	-7547
没有什么特别	-7548
一丝	-7549
不买	-7550
比例	-7551
你可以	-7552
这次去	-7553
还是不错滴	-7554
ac	-7555
忍了	-7556
前两天	-7557
有一股	-7558
热的时候	-7559
外送	-7560
明确	-7561
月的	-7562
蛋炒饭	-7563
一趟	-7564
扑鼻	-7565
的还	-7566
▁so	-7567
豆瓣	-7568
▁co	-7569
没有的	-7570
瓶啤酒	-7571
豆制品	-7572
都很有	-7573
鳗鱼饭	-7574
物有所值	-7575
不放	-7576
福士	-7577
糊了	-7578
蛮大	-7579
贝拉	-7580
即可	-7581
平安	-7582
早晨	-7583
清爽的	-7584
结束了	-7585
要不然	-7586
停在	-7587
双休	-7588
多块	-7589
我才	-7590
要贵	-7591
金融	-7592
▁主要	-7593
称赞	-7594
桌上的	-7595
菠萝包	-7596
新颖	-7597
来形容	-7598
优惠活动	-7599
巧克力酱	-7600
四周	-7601
现做	-7602
SPA	-7603
再去了	-7604
味千拉面	-7605
入了	-7606
学院	-7607
常客	-7608
冰柜	-7609
商户	-7610
密码	-7611
级的	-7612
一直都	-7613
就决定	-7614
满座	-7615
鱼籽	-7616
冰箱里	-7617
在店里	-7618
人一	-7619
夏威	-7620
一楼的	-7621
我吃过	-7622
搞不懂	-7623
ly	-7624
一是	-7625
吃面	-7626
浇上	-7627
脏的	-7628
但是不	-7629
元一位	-7630
大拌菜	-7631
完之后	-7632
火龙果	-7633
炸过的	-7634
品种很多	-7635
这种东西	-7636
修剪	-7637
早已	-7638
▁in	-7639
城隍庙	-7640
夏威夷	-7641
失所望	-7642
搭配的	-7643
的原因吧	-7644
ow	-7645
加强	-7646
给我的感觉	-7647
板栗	-7648
不干净	-7649
新开张	-7650
离我家	-7651
衣服的	-7652
味道还好	-7653
最后一天	-7654
碎了	-7655
第四	-7656
▁周六	-7657
经常吃	-7658
绝对的	-7659
再买	-7660
百年	-7661
一类的	-7662
味道挺	-7663
这顿饭	-7664
见面	-7665
人数	-7666
好利	-7667
热量	-7668
熟练	-7669
窝头	-7670
那层	-7671
都给	-7672
因为之前	-7673
基本没有	-7674
生日蛋糕	-7675
▁:	-7676
量足	-7677
一大盆	-7678
很宽敞	-7679
鱼豆腐	-7680
我还是喜欢	-7681
在二楼	-7682
▁为什么	-7683
人是	-7684
外焦	-7685
成长	-7686
自我	-7687
不过后来	-7688
紫菜包饭	-7689
偷偷	-7690
学者	-7691
正的	-7692
因为没有	-7693
▁h	-7694
▁逛	-7695
丰盛	-7696
忙碌	-7697
批评	-7698
政府	-7699
好象是	-7700
朋友去	-7701
舍不得	-7702
还有好多	-7703
进的	-7704
青春	-7705
也就那样	-7706
很干	-7707
药水	-7708
就是不	-7709
还记得	-7710
觉得一般	-7711
寝室	-7712
竹荪	-7713
好好味	-7714
有好几	-7715
热干面	-7716
知道了	-7717
可以考虑	-7718
还有一种	-7719
各自	-7720
太平	-7721
就再	-7722
脑子	-7723
造成	-7724
ang	-7725
想象的	-7726
一小时	-7727
我们家	-7728
/~	-7729
XO	-7730
中学	-7731
▁每个	-7732
到这家	-7733
性格	-7734
阶段	-7735
也就这样	-7736
▁过	-7737
就又	-7738
最初	-7739
▁我说	-7740
不愧是	-7741
▁西	-7742
暗的	-7743
了好几	-7744
晚上去	-7745
▁and	-7746
我们一桌	-7747
可言	-7748
不划算	-7749
最后一	-7750
牛肉卷	-7751
经常光顾	-7752
芒果布丁	-7753
都不怎么	-7754
上门	-7755
也少	-7756
清静	-7757
什么菜	-7758
▁水	-7759
分数	-7760
整理	-7761
烤盘	-7762
▁豆腐	-7763
没找到	-7764
经常来	-7765
大同小异	-7766
手边	-7767
本想	-7768
澳洲	-7769
箱子	-7770
难忘	-7771
我不是	-7772
新世界	-7773
关了	-7774
可谓	-7775
薄的	-7776
那会	-7777
我以前	-7778
错过了	-7779
朋友介绍	-7780
我最喜欢的	-7781
两斤	-7782
入门	-7783
自在	-7784
菜牌	-7785
▁内容	-7786
▁让人	-7787
学校的	-7788
▁酱	-7789
上看	-7790
女性	-7791
很早	-7792
有三	-7793
清甜	-7794
浓油赤	-7795
粉丝煲	-7796
给他们	-7797
卡布奇诺	-7798
但是我觉得	-7799
流畅	-7800
的确不错	-7801
上周	-7802
大葱	-7803
毫不犹豫	-7804
这个时候	-7805
男孩	-7806
芸豆	-7807
霸王	-7808
香煎	-7809
吃不掉	-7810
很不爽	-7811
▁不好吃	-7812
倒水	-7813
教学	-7814
楼是	-7815
猴桃	-7816
画面	-7817
花蛤	-7818
过期	-7819
这份	-7820
馆的	-7821
▁还要	-7822
热闹的	-7823
都有的	-7824
最后一个	-7825
名称	-7826
摊位	-7827
蚝油	-7828
车的	-7829
遍了	-7830
长寿	-7831
▁不用	-7832
都一般	-7833
这个牌子	-7834
丝毫	-7835
豆子	-7836
长期	-7837
上去了	-7838
套餐的	-7839
很多都是	-7840
情侣约会	-7841
▁味道一般	-7842
▁还有一个	-7843
▁谁	-7844
报告	-7845
洞天	-7846
较多	-7847
▁鸡翅	-7848
出现了	-7849
它是	-7850
买回来	-7851
咖啡的	-7852
胡椒粉	-7853
点了一杯	-7854
th	-7855
幽默	-7856
山人海	-7857
进口的	-7858
互相	-7859
就先	-7860
酒香	-7861
個人	-7862
可以看	-7863
居然没有	-7864
每次路过	-7865
泡泡	-7866
知名	-7867
飘香	-7868
▁随便	-7869
分钟后	-7870
是不错	-7871
沃尔玛	-7872
点的东西	-7873
还算干净	-7874
五香	-7875
不到了	-7876
左右吧	-7877
乐购	-7878
会所	-7879
去做	-7880
▁很大	-7881
品牌的	-7882
回头客	-7883
老鸭汤	-7884
中关	-7885
兮兮	-7886
不太多	-7887
不过在	-7888
上火	-7889
事件	-7890
搞的	-7891
格调	-7892
油菜	-7893
腰子	-7894
▁一家	-7895
完美了	-7896
▁很不错	-7897
是一样的	-7898
嗲的	-7899
堂吃	-7900
集中	-7901
什么了	-7902
就算是	-7903
很细腻	-7904
柚子茶	-7905
的过程	-7906
菜做的	-7907
吃了不少	-7908
服务质量	-7909
越来越多	-7910
允许	-7911
排条	-7912
聚德	-7913
车上	-7914
饰品	-7915
▁of	-7916
▁水果	-7917
小份的	-7918
我们要	-7919
爱上了	-7920
进来了	-7921
绝对不会	-7922
十三	-7923
盯着	-7924
脾气	-7925
▁餐厅	-7926
也很香	-7927
_-	-7928
大致	-7929
得不	-7930
淋浴	-7931
白汤	-7932
虽说是	-7933
▁本来是	-7934
番薯	-7935
不正宗	-7936
客气的	-7937
居然有	-7938
显得很	-7939
七宝	-7940
才到	-7941
整只	-7942
自取	-7943
订位	-7944
▁店员	-7945
其中的	-7946
去晚了	-7947
有弹性	-7948
感觉味道	-7949
还是非常	-7950
▁让	-7951
外滩	-7952
没看	-7953
潮州	-7954
鸭肝	-7955
但是现在	-7956
透着	-7957
了一点点	-7958
原汁原味	-7959
下锅	-7960
惯了	-7961
蚊子	-7962
一直觉得	-7963
约翰	-7964
缺乏	-7965
都会有	-7966
他家的东西	-7967
几位	-7968
很美	-7969
上到	-7970
乌龙	-7971
唔会	-7972
放入	-7973
长队	-7974
到不行	-7975
客流	-7976
是新	-7977
来买	-7978
煎的	-7979
虾和	-7980
黄鳝	-7981
又便宜	-7982
我也没	-7983
对折	-7984
要等位	-7985
还是不要	-7986
事儿	-7987
无人	-7988
母亲	-7989
满记	-7990
腊肠	-7991
也只是	-7992
大家都说	-7993
团了	-7994
专门的	-7995
出炉的	-7996
刚开张	-7997
想到了	-7998
我看到	-7999
感慨	-8000
甲鱼	-8001
简约	-8002
顺着	-8003
经常有	-8004
还有一	-8005
的服务费	-8006
第二次去	-8007
还点了一个	-8008
下肚	-8009
买完	-8010
精细	-8011
这店	-8012
▁~~	-8013
一句话	-8014
不给力	-8015
还不是	-8016
抽奖	-8017
放下	-8018
有效	-8019
要用	-8020
▁好久	-8021
接电话	-8022
猕猴桃	-8023
蛮喜欢	-8024
但是因为	-8025
没什么可	-8026
的时候是	-8027
湖北	-8028
贴着	-8029
▁芝士	-8030
去一次	-8031
很明显	-8032
朋友来	-8033
的小笼	-8034
算不上	-8035
架子	-8036
汽水	-8037
窗外	-8038
下班了	-8039
这不是	-8040
价格不便宜	-8041
庆祝	-8042
改了	-8043
破了	-8044
花鱼	-8045
获得	-8046
不入味	-8047
网上的	-8048
还有人	-8049
大口	-8050
更衣	-8051
那条	-8052
几个月	-8053
外卖的	-8054
干净净	-8055
从此	-8056
几款	-8057
好像有	-8058
快了	-8059
无烟	-8060
樱花	-8061
小火锅	-8062
常去的	-8063
份上	-8064
受到	-8065
每份	-8066
肉是	-8067
败笔	-8068
老人家	-8069
鸡公煲	-8070
勇气	-8071
华夫	-8072
▁倒是	-8073
很劲道	-8074
的小姐	-8075
的座位	-8076
HA	-8077
但又	-8078
笑脸	-8079
▁上来	-8080
很开胃	-8081
步行街	-8082
过去吃	-8083
可以试试	-8084
打包带走	-8085
这家店了	-8086
信任	-8087
加坡	-8088
吉祥	-8089
子面	-8090
插图	-8091
穿的	-8092
黑米	-8093
吸烟区	-8094
奇怪的	-8095
欧式	-8096
辉煌	-8097
就发现	-8098
的部分	-8099
超市里	-8100
都是大	-8101
大失所望	-8102
乱的	-8103
快速	-8104
涨到	-8105
眼神	-8106
▁总是	-8107
不点	-8108
加个	-8109
早了	-8110
▁好多	-8111
元一杯	-8112
农家菜	-8113
点一个	-8114
问了下	-8115
单反	-8116
古代	-8117
吃光	-8118
棒的	-8119
洗浴	-8120
里了	-8121
马来	-8122
味很浓	-8123
奢华	-8124
必然	-8125
盆子	-8126
得可怜	-8127
没得说	-8128
爽口的	-8129
菠萝饭	-8130
极力推荐	-8131
▁n	-8132
三口	-8133
住宿	-8134
使得	-8135
放进	-8136
眼泪	-8137
计算	-8138
就像是	-8139
没多少	-8140
例外	-8141
成分	-8142
要到	-8143
风扇	-8144
咖啡店	-8145
鱼香茄子	-8146
乐队	-8147
小包	-8148
很深	-8149
未尽	-8150
茉莉	-8151
豉油	-8152
鉴于	-8153
别的店	-8154
大多是	-8155
非常的好	-8156
也是不错的	-8157
实体	-8158
得出	-8159
撒上	-8160
无可	-8161
老头	-8162
院子	-8163
面酱	-8164
▁想吃	-8165
惬意的	-8166
酸汤肥牛	-8167
餐前面包	-8168
和平	-8169
科技	-8170
全家福	-8171
结果是	-8172
每次必点的	-8173
主管	-8174
包场	-8175
拥有	-8176
气质	-8177
对这个	-8178
▁实在是	-8179
百味	-8180
米道	-8181
酥鸡	-8182
饼和	-8183
一条街	-8184
健康的	-8185
日本的	-8186
更适合	-8187
老板人	-8188
打包回家	-8189
挺喜欢的	-8190
OR	-8191
▁带	-8192
今晚	-8193
光是	-8194
炭烧	-8195
白白	-8196
百度	-8197
鸡炖	-8198
已经有	-8199
很浓的	-8200
风味的	-8201
服务员也	-8202
蓝莓山药	-8203
容纳	-8204
尝到	-8205
池子	-8206
菜饭	-8207
但感觉	-8208
sp	-8209
te	-8210
商店	-8211
薯片	-8212
一块钱	-8213
来试试	-8214
萝卜干	-8215
比较干净	-8216
而且味道	-8217
劲儿	-8218
标签	-8219
▁单位	-8220
差很多	-8221
这地方	-8222
IT	-8223
学会	-8224
材实	-8225
做好的	-8226
发现的	-8227
不过没有	-8228
人气很旺	-8229
之内	-8230
有余	-8231
毛毛	-8232
货真	-8233
路店	-8234
各方面	-8235
美丽的	-8236
辣的人	-8237
一如既往的	-8238
入手	-8239
总监	-8240
柔软	-8241
球的	-8242
要有	-8243
那块	-8244
一定的	-8245
我知道	-8246
很不舒服	-8247
朋友推荐	-8248
ia	-8249
排版	-8250
桑拿	-8251
欧洲	-8252
能在	-8253
菜汤	-8254
蹄筋	-8255
▁也有	-8256
从外面	-8257
冰激淋	-8258
比较嫩	-8259
柔和	-8260
说来	-8261
食用	-8262
一小块	-8263
自然是	-8264
那就是	-8265
酸汤鱼	-8266
也很热情	-8267
最喜欢吃	-8268
下咽	-8269
每位	-8270
好一些	-8271
都知道	-8272
觉得味道	-8273
bo	-8274
古老	-8275
歇脚	-8276
流程	-8277
足以	-8278
▁等了	-8279
不够吃	-8280
只要是	-8281
点吧	-8282
穿过	-8283
荷兰	-8284
跑了	-8285
都想	-8286
合算的	-8287
好久没	-8288
熟悉的	-8289
相比较	-8290
豆腐和	-8291
不是一个	-8292
▁g	-8293
华联	-8294
完毕	-8295
数字	-8296
趁着	-8297
饼的	-8298
鸡杂	-8299
▁冲着	-8300
的自助	-8301
CA	-8302
中辣	-8303
乡村	-8304
关东	-8305
大名	-8306
庆幸	-8307
猪油	-8308
荡荡	-8309
ast	-8310
满足的	-8311
相当于	-8312
个人口味	-8313
元素	-8314
钱包	-8315
就饱了	-8316
市中心	-8317
所以没	-8318
有一天	-8319
两个小时	-8320
没什么区别	-8321
他就	-8322
前天	-8323
掩盖	-8324
模样	-8325
欠缺	-8326
统统	-8327
鸽子	-8328
我一般	-8329
住在附近	-8330
可以理解	-8331
第一次吃到	-8332
卡的	-8333
有机	-8334
正版	-8335
的時候	-8336
超级大	-8337
一起去吃	-8338
所以感觉	-8339
让人感觉	-8340
都很一般	-8341
不知道现在	-8342
处于	-8343
气势	-8344
红椒	-8345
右边	-8346
很冷	-8347
晶莹	-8348
仔细看	-8349
价格不	-8350
完美的	-8351
就是一	-8352
才开始	-8353
然后又	-8354
都不用	-8355
价格实惠	-8356
就上来了	-8357
找了半天	-8358
端上来的	-8359
▁家	-8360
回了	-8361
新奇	-8362
死的	-8363
的甜	-8364
粉皮	-8365
诡异	-8366
香油	-8367
几块钱	-8368
和以前	-8369
没吃饱	-8370
还是蛮不错的	-8371
三块	-8372
其實	-8373
几百	-8374
大型	-8375
头皮	-8376
应用	-8377
油油的	-8378
出来的时候	-8379
▁料	-8380
加盟	-8381
可真	-8382
大力	-8383
很吵	-8384
拿个	-8385
香水	-8386
没以前	-8387
菜单上的	-8388
这家店是	-8389
次次	-8390
挺不错	-8391
可想而知	-8392
月底	-8393
觉的	-8394
铜锅	-8395
银子	-8396
而且有	-8397
手套	-8398
放得	-8399
日语	-8400
▁比起	-8401
不能用	-8402
了一句	-8403
只能用	-8404
的水平	-8405
很有感觉	-8406
冷气	-8407
橙子	-8408
菜都是	-8409
这里了	-8410
吃了一次	-8411
在这里吃	-8412
服务员都是	-8413
千里	-8414
虹桥	-8415
虾酱	-8416
说你	-8417
过敏	-8418
全聚德	-8419
多分钟	-8420
汤很鲜	-8421
这么好	-8422
瑶柱	-8423
说得	-8424
▁也没	-8425
到哪里	-8426
味道真的	-8427
染发	-8428
门前	-8429
▁看看	-8430
了一把	-8431
人多的	-8432
墨鱼丸	-8433
大酒店	-8434
个性	-8435
旺的	-8436
有味	-8437
没上	-8438
特別	-8439
白酒	-8440
下去的	-8441
也喜欢	-8442
做头发	-8443
好吃呢	-8444
老板和	-8445
hoho	-8446
▁老板娘	-8447
什么的都	-8448
人人	-8449
低了	-8450
很全	-8451
热乎	-8452
金黄	-8453
地方了	-8454
泡在	-8455
炼乳	-8456
我怎么	-8457
菠萝油	-8458
▁冬天	-8459
基本上是	-8460
太远	-8461
巨大	-8462
配套	-8463
▁我和	-8464
面包的	-8465
早早	-8466
燕麦	-8467
般的	-8468
清楚了	-8469
烧烤店	-8470
独特的	-8471
▁真的很	-8472
SA	-8473
▁a	-8474
一贯	-8475
懂得	-8476
滑嫩	-8477
比我们	-8478
很有味道	-8479
我们要了	-8480
还是值得	-8481
加州	-8482
标价	-8483
每一	-8484
▁不管	-8485
东西了	-8486
可惜了	-8487
吃一个	-8488
的一大	-8489
的店铺	-8490
选了这家	-8491
台的	-8492
在一	-8493
暑假	-8494
粗粮	-8495
▁做的	-8496
没感觉	-8497
货真价	-8498
饭点儿	-8499
不太适合	-8500
前段时间	-8501
嗓子	-8502
日常	-8503
还多	-8504
▁原价	-8505
看电视	-8506
▁K	-8507
到那	-8508
相间	-8509
连个	-8510
马兰	-8511
也挺好	-8512
种口味	-8513
▁巧克力	-8514
很一般了	-8515
没有吃过	-8516
虽然不是	-8517
半个多小时	-8518
恢复	-8519
老虎	-8520
一下的	-8521
套餐里	-8522
年夜饭	-8523
牛小排	-8524
豆腐丝	-8525
▁也没有	-8526
不必	-8527
拖鞋	-8528
有啥	-8529
贵州	-8530
尝了尝	-8531
就随便	-8532
变的	-8533
最便宜	-8534
有味道	-8535
真系好	-8536
▁某	-8537
京酱	-8538
街口	-8539
赚钱	-8540
下次再去	-8541
咖喱牛肉	-8542
中医	-8543
工艺	-8544
应有	-8545
韧性	-8546
高速	-8547
不要点	-8548
满足了	-8549
满好吃的	-8550
经常去吃	-8551
别说	-8552
宜家	-8553
手擀	-8554
的路	-8555
陪着	-8556
▁根本	-8557
巴贝拉	-8558
说真的	-8559
问题是	-8560
鸡肉饭	-8561
及其	-8562
口中	-8563
小碟	-8564
欺凌	-8565
红汤	-8566
订餐	-8567
辣辣	-8568
充满了	-8569
王府井	-8570
好几次了	-8571
也大	-8572
加钱	-8573
扁豆	-8574
旧了	-8575
虾米	-8576
餐牌	-8577
ent	-8578
在我的	-8579
犹未尽	-8580
又大	-8581
枸杞	-8582
烹饪	-8583
▁进门	-8584
东坡肉	-8585
反正我	-8586
常见的	-8587
感觉上	-8588
量很少	-8589
点了两个	-8590
上涨	-8591
茶香	-8592
袖珍	-8593
▁咖啡	-8594
设计师	-8595
不是很高	-8596
▁黑	-8597
價格	-8598
周二	-8599
总得	-8600
笋干	-8601
裤子	-8602
▁第三	-8603
上去的	-8604
的饭店	-8605
▁不喜欢	-8606
又好	-8607
欺骗	-8608
汤料	-8609
莲子	-8610
鸭掌	-8611
一份的	-8612
得很好	-8613
的音乐	-8614
感觉还可以	-8615
地面	-8616
碗面	-8617
词汇	-8618
酱香	-8619
▁书的	-8620
冰欺凌	-8621
外面是	-8622
都这样	-8623
整个过程	-8624
很饱	-8625
是现	-8626
用手	-8627
顺路	-8628
不会太	-8629
大厅里	-8630
全场	-8631
端着	-8632
回家的	-8633
意外的	-8634
的产品	-8635
▁热	-8636
专辑	-8637
前者	-8638
柠檬茶	-8639
自己也	-8640
干干净净	-8641
保修	-8642
周三	-8643
左个	-8644
肉包	-8645
越做	-8646
青瓜	-8647
吃不消	-8648
的介绍	-8649
真是好	-8650
还有一份	-8651
这里的东西	-8652
不满	-8653
也行	-8654
吹风	-8655
常来	-8656
榻榻	-8657
比赛	-8658
走着	-8659
一般啦	-8660
那个小	-8661
鲜美的	-8662
办会员卡	-8663
让人失望	-8664
环境还是不错的	-8665
中宝	-8666
剪的	-8667
奶绿	-8668
日系	-8669
在学校	-8670
非常之	-8671
不太好找	-8672
刺身拼盘	-8673
叫人	-8674
承受	-8675
普洱	-8676
一定是	-8677
推出的	-8678
还是吃	-8679
这次是	-8680
问题的	-8681
意犹未尽	-8682
哪些	-8683
开吃	-8684
▁曾经	-8685
于是我	-8686
几乎是	-8687
鸭脖子	-8688
价格也很	-8689
买单的时候	-8690
▁嗯	-8691
炸虾	-8692
肠胃	-8693
下次再	-8694
布置的	-8695
都有了	-8696
点了一些	-8697
中途	-8698
想像	-8699
松仁	-8700
落在	-8701
重量	-8702
加了点	-8703
换了个	-8704
最起码	-8705
白萝卜	-8706
之后发现	-8707
吃了一半	-8708
都没吃完	-8709
个人比较喜欢	-8710
午后	-8711
原始	-8712
很火	-8713
芙蓉	-8714
鲷鱼	-8715
龙井	-8716
▁今年	-8717
不少的	-8718
买一个	-8719
甜品店	-8720
都没吃	-8721
不是一般	-8722
也有很多	-8723
类的东西	-8724
自己喜欢的	-8725
体的	-8726
大餐	-8727
通的	-8728
剩下了	-8729
比外面	-8730
真材实	-8731
提前预定	-8732
会在	-8733
卖家	-8734
椰蓉	-8735
窗边	-8736
雖然	-8737
;;	-8738
没错	-8739
看病	-8740
来到这里	-8741
六个	-8742
卷的	-8743
小杯	-8744
状元	-8745
就是那种	-8746
推荐大家	-8747
还不错吧	-8748
那么回事	-8749
倒闭	-8750
混沌	-8751
花费	-8752
进到	-8753
ini	-8754
小黄鱼	-8755
的话就	-8756
选了个	-8757
▁一个人	-8758
别有洞天	-8759
▁啊	-8760
碳烤	-8761
福州	-8762
▁牛排	-8763
一下午	-8764
而且没有	-8765
自己做的	-8766
转了一圈	-8767
中带	-8768
凌晨	-8769
含量	-8770
播放	-8771
歌手	-8772
洗完	-8773
在家里	-8774
就不想	-8775
留下了	-8776
蛮喜欢的	-8777
速度很快	-8778
人头	-8779
商城	-8780
吃海鲜	-8781
的好喝	-8782
葡萄酒	-8783
不用排队	-8784
吃到后来	-8785
下酒	-8786
中杯	-8787
各有	-8788
点知	-8789
货的	-8790
这块	-8791
下班后	-8792
同样是	-8793
但是服务	-8794
卤味	-8795
草坪	-8796
赶快	-8797
▁热菜	-8798
有点干	-8799
比较的	-8800
白切鸡	-8801
还买了	-8802
都用	-8803
▁蛋糕	-8804
千层面	-8805
只吃了	-8806
淮海路	-8807
路边摊	-8808
烤五花肉	-8809
一元	-8810
到家	-8811
泡的	-8812
电源	-8813
百联	-8814
离得	-8815
节约	-8816
货了	-8817
滑滑的	-8818
的机会	-8819
说可以	-8820
吃的就是	-8821
喜欢这种	-8822
的缘故吧	-8823
还算新鲜	-8824
严格	-8825
刀工	-8826
思维	-8827
流沙	-8828
收到了	-8829
越做越	-8830
都没人	-8831
只能说是	-8832
松露	-8833
現在	-8834
骨髓	-8835
外地人	-8836
对我们	-8837
挺嫩的	-8838
个多小时	-8839
但是我们	-8840
傣妹	-8841
卤煮	-8842
留意	-8843
软烂	-8844
也吃过	-8845
大闸蟹	-8846
妈妈说	-8847
宴会厅	-8848
丹麦	-8849
再要	-8850
讲话	-8851
win	-8852
▁那么	-8853
鲜榨的	-8854
台式	-8855
在哪	-8856
最差	-8857
米皮	-8858
配置	-8859
一般性	-8860
去过的	-8861
味道很正	-8862
在一起的	-8863
整体来说	-8864
都是一个	-8865
傍晚	-8866
写作	-8867
壮观	-8868
往前	-8869
要把	-8870
我一个	-8871
我倒是	-8872
要知道	-8873
这么多年	-8874
同一	-8875
新娘	-8876
时刻	-8877
留着	-8878
鱿鱼须	-8879
不肯	-8880
东北人	-8881
应该有	-8882
期待的	-8883
作为一个	-8884
dp	-8885
一带	-8886
口渴	-8887
松茸	-8888
气味	-8889
节日	-8890
陌生	-8891
▁原本	-8892
▁是我	-8893
▁蔬菜	-8894
的点评	-8895
COCO	-8896
路过这里	-8897
后来才知道	-8898
什麼	-8899
外边	-8900
大方	-8901
辣了	-8902
辣锅	-8903
主要的	-8904
的晚上	-8905
蟹粉豆腐	-8906
有点小失望	-8907
------	-8908
不知道吃什么	-8909
台阶	-8910
坚决	-8911
外酥	-8912
贵宾	-8913
赠品	-8914
可以加	-8915
服务台	-8916
准时	-8917
向往	-8918
大桌	-8919
我真	-8920
极差	-8921
清水	-8922
▁芒果	-8923
好多次	-8924
每次吃	-8925
▁囧	-8926
中有	-8927
因素	-8928
奶黄	-8929
心心	-8930
著名	-8931
采购	-8932
一下吧	-8933
不过有	-8934
冰冰的	-8935
明显是	-8936
两条	-8937
后门	-8938
大牌	-8939
棉花	-8940
炸过	-8941
票价	-8942
隔离	-8943
▁不知	-8944
但是很	-8945
既然是	-8946
烧烤的	-8947
盗版书	-8948
看得出	-8949
都不大	-8950
和谐	-8951
多加	-8952
大半	-8953
想喝	-8954
旗舰	-8955
牛角	-8956
职业	-8957
有兴趣	-8958
给自己	-8959
喜欢这里的	-8960
服务也很好	-8961
▁這	-8962
二是	-8963
会更	-8964
赞不绝	-8965
念念不忘	-8966
坚果	-8967
景区	-8968
结实	-8969
装了	-8970
觅食	-8971
时间的	-8972
虽然我	-8973
久久	-8974
后再	-8975
咸鲜	-8976
热爱	-8977
面饼	-8978
不打折	-8979
同事们	-8980
小吃店	-8981
▁环境很好	-8982
夏天的时候	-8983
▁味道还可以	-8984
LP	-8985
一听	-8986
低调	-8987
力量	-8988
大哥	-8989
女子	-8990
音效	-8991
▁去的	-8992
不好了	-8993
日式的	-8994
都吃完了	-8995
tt	-8996
兜兜	-8997
和她	-8998
圆圆	-8999
摄像	-9000
正大	-9001
消息	-9002
老醋	-9003
苏宁	-9004
▁对了	-9005
分别是	-9006
吃一顿	-9007
同去的	-9008
星星	-9009
结局	-9010
菊花	-9011
酸了	-9012
清口	-9013
苦味	-9014
不大的	-9015
不过因为	-9016
保温	-9017
元宵	-9018
半打	-9019
又少	-9020
江鱼	-9021
过道	-9022
位子了	-9023
而且很	-9024
首先是	-9025
可以直接	-9026
开了一家	-9027
▁还有就是	-9028
描写	-9029
滋滋	-9030
炒粉	-9031
炭火	-9032
ifi	-9033
▁昨晚	-9034
我们又	-9035
生活的	-9036
·····	-9037
人间	-9038
建设	-9039
蛋饼	-9040
酥烂	-9041
味道很淡	-9042
的味道还不错	-9043
▁黄	-9044
夹杂	-9045
新人	-9046
梦想	-9047
默默	-9048
龙头	-9049
▁不要	-9050
还没上	-9051
饱饱的	-9052
菜的分量	-9053
川北	-9054
不影响	-9055
加起来	-9056
盐酥鸡	-9057
跑过去	-9058
第一次去的时候	-9059
GH	-9060
夜市	-9061
底部	-9062
蒙古	-9063
醒目	-9064
饭了	-9065
魅力	-9066
的要求	-9067
老实说	-9068
都不敢	-9069
不象	-9070
优秀	-9071
古朴	-9072
后期	-9073
大姐	-9074
大雨	-9075
钵钵	-9076
▁配上	-9077
不愿意	-9078
来福士	-9079
沸腾鱼	-9080
油爆虾	-9081
的感觉了	-9082
▁味道很好	-9083
一身	-9084
拉丝	-9085
模仿	-9086
烧法	-9087
缩水	-9088
ate	-9089
动物园	-9090
有点大	-9091
棒约翰	-9092
朋友点的	-9093
桂林米粉	-9094
经常去的	-9095
悠悠	-9096
的名	-9097
增加了	-9098
并不多	-9099
应该说	-9100
注意到	-9101
还是有些	-9102
这些东西	-9103
味道不错的	-9104
▁下	-9105
任选	-9106
层是	-9107
浴室	-9108
这时候	-9109
那家的	-9110
但是觉得	-9111
还是挺好的	-9112
xx	-9113
五十	-9114
入住	-9115
凉茶	-9116
媳妇	-9117
黑白	-9118
的饮料	-9119
不知不觉	-9120
的时候我	-9121
一跳	-9122
又贵	-9123
文艺	-9124
草头	-9125
贝壳	-9126
▁真心	-9127
墙上的	-9128
小票	-9129
拿去	-9130
生态	-9131
的把	-9132
上海菜	-9133
地方的	-9134
也挺好吃的	-9135
切开	-9136
夹心	-9137
工资	-9138
隔壁桌	-9139
没有吃到	-9140
上汤娃娃菜	-9141
一时	-9142
好饱	-9143
屁颠	-9144
调节	-9145
▁也很	-9146
不能再	-9147
特制的	-9148
的日子	-9149
被我们	-9150
要便宜	-9151
调味料	-9152
香辣蟹	-9153
可以打折	-9154
我去的时候	-9155
还是挺多的	-9156
才给	-9157
摆在	-9158
麻花	-9159
怎么能	-9160
放进去	-9161
看样子	-9162
如果没有	-9163
甜而不腻	-9164
还真不错	-9165
不禁	-9166
小盘	-9167
插曲	-9168
碰上	-9169
绵软	-9170
▁招牌	-9171
可以坐	-9172
和我说	-9173
太高了	-9174
看不出	-9175
骨头汤	-9176
得不得了	-9177
生意不错	-9178
你是	-9179
可供	-9180
格外	-9181
灌肠	-9182
电器	-9183
都去	-9184
不就是	-9185
和饮料	-9186
大块的	-9187
房间里	-9188
菲力牛排	-9189
还是相当	-9190
买好	-9191
机的	-9192
球场	-9193
还剩	-9194
香精	-9195
了而且	-9196
了这个	-9197
回去了	-9198
比较晚	-9199
肯定不会	-9200
享用	-9201
展览	-9202
我来	-9203
木头	-9204
可以把	-9205
和他们	-9206
炒鸡蛋	-9207
爱好者	-9208
还是很好	-9209
出来的效果	-9210
美中不足的是	-9211
中西	-9212
元旦	-9213
几句	-9214
姥姥	-9215
寻觅	-9216
并非	-9217
挑战	-9218
荔枝	-9219
通风	-9220
又一次	-9221
开玩笑	-9222
杯咖啡	-9223
也蛮好吃的	-9224
没有想象中	-9225
金枪鱼沙拉	-9226
ub	-9227
亮堂	-9228
外壳	-9229
得是	-9230
到晚上	-9231
很周到	-9232
这几天	-9233
什么都有	-9234
一级	-9235
体贴	-9236
卡卡	-9237
尾巴	-9238
情的	-9239
只剩下	-9240
只可惜	-9241
如果要	-9242
当然要	-9243
真的有	-9244
好吃好吃	-9245
家庭聚餐	-9246
我最爱的	-9247
印象最深的是	-9248
厚重	-9249
睫毛	-9250
进步	-9251
和水果	-9252
就是很	-9253
很有弹性	-9254
▁......	-9255
哪天	-9256
夹子	-9257
干贝	-9258
材质	-9259
牡丹	-9260
谁知	-9261
迟到	-9262
光顾了	-9263
蝴蝶酥	-9264
▁我们是	-9265
也挺多的	-9266
人也不多	-9267
大部分都是	-9268
实在不敢恭维	-9269
件事	-9270
块了	-9271
实践	-9272
文件	-9273
爽啊	-9274
白糖	-9275
不想吃	-9276
同一个	-9277
基本的	-9278
满好的	-9279
满足感	-9280
公司附近	-9281
更换	-9282
▁米饭	-9283
▁这些	-9284
没地方	-9285
的一盘	-9286
居然还有	-9287
咖哩	-9288
平衡	-9289
某种	-9290
▁冷菜	-9291
出去了	-9292
好大的	-9293
炒米粉	-9294
一场	-9295
厨子	-9296
敏感	-9297
的车	-9298
理发师	-9299
都很大	-9300
▁鲜	-9301
一的	-9302
下巴	-9303
国产	-9304
辅料	-9305
倒是蛮	-9306
特别香	-9307
人山人海	-9308
我点的是	-9309
等的时间	-9310
ct	-9311
凉快	-9312
是以	-9313
条的	-9314
水分	-9315
洋洋	-9316
糊弄	-9317
跟他	-9318
难看	-9319
做得不错	-9320
每次去都	-9321
偏偏	-9322
抱歉	-9323
指定	-9324
烤麸	-9325
班戟	-9326
不同于	-9327
记得以前	-9328
网购	-9329
解渴	-9330
饼皮	-9331
上看到	-9332
很有名	-9333
双人套餐	-9334
喝不	-9335
肚皮	-9336
面疙瘩	-9337
▁刚开始	-9338
▁金针菇	-9339
服务员在	-9340
废话	-9341
老家	-9342
一边吃	-9343
小蛋糕	-9344
干干的	-9345
的店员	-9346
缘故吧	-9347
听朋友说	-9348
味道可以	-9349
的地方了	-9350
只会	-9351
有钱	-9352
立即	-9353
涮羊肉	-9354
▁与	-9355
偏重	-9356
申请	-9357
一部分	-9358
写的是	-9359
好地方	-9360
不过这里	-9361
没怎么吃	-9362
只剩	-9363
川味	-9364
影子	-9365
燕窝	-9366
鸡扒	-9367
▁不太	-9368
想要的	-9369
不过还好	-9370
好像没有	-9371
焦糖布丁	-9372
还不错啦	-9373
还是怎么	-9374
还有一点	-9375
这么好的	-9376
也不是很好	-9377
mb	-9378
五个	-9379
太油	-9380
没用	-9381
那桌	-9382
长草	-9383
很想吃	-9384
打折扣	-9385
很不错哦	-9386
么就	-9387
充足	-9388
冒着	-9389
吸收	-9390
园子	-9391
小巧	-9392
稍显	-9393
结论	-9394
翡翠	-9395
酱和	-9396
露台	-9397
味多美	-9398
奶茶店	-9399
烤羊腿	-9400
元的价格	-9401
其他东西	-9402
点了两份	-9403
▁问	-9404
别扭	-9405
吵架	-9406
玩儿	-9407
私人	-9408
花花	-9409
到尾	-9410
楼层	-9411
汽车	-9412
略带	-9413
起來	-9414
不建议	-9415
消费的	-9416
什么味道	-9417
▁今天中午	-9418
EA	-9419
多个	-9420
應該	-9421
时常	-9422
沐浴	-9423
竹笋	-9424
要在	-9425
运行	-9426
量不多	-9427
马上就	-9428
的味道了	-9429
黑椒牛柳	-9430
sh	-9431
倒也	-9432
同类	-9433
小摊	-9434
想找	-9435
来点	-9436
后来我	-9437
点评网上	-9438
一部	-9439
不烂	-9440
失误	-9441
已經	-9442
无非	-9443
绍兴	-9444
得不错	-9445
排队了	-9446
真功夫	-9447
一坐	-9448
中和	-9449
到时	-9450
好啦	-9451
步骤	-9452
火焰	-9453
介绍说	-9454
吃一次	-9455
没关系	-9456
的学生	-9457
也比较多	-9458
各种各样的	-9459
那个服务员	-9460
口干	-9461
年底	-9462
爆炒	-9463
一小碟	-9464
中关村	-9465
去尝试	-9466
和一份	-9467
的大小	-9468
细细的	-9469
在这里吃的	-9470
些许	-9471
眼光	-9472
are	-9473
不值得	-9474
香辣虾	-9475
等了半天	-9476
非常适合	-9477
里面有很多	-9478
吸管	-9479
宫廷	-9480
常规	-9481
桌布	-9482
通心	-9483
南京路	-9484
吸引了	-9485
多块钱	-9486
掌中宝	-9487
角落里	-9488
跟老公	-9489
这儿的	-9490
不是我的	-9491
价廉物美	-9492
可以吃到	-9493
唯独	-9494
缺少	-9495
软了	-9496
无限量	-9497
来这儿	-9498
到了这里	-9499
店面很小	-9500
的时候看到	-9501
▁放	-9502
去试	-9503
背部	-9504
▁凉菜	-9505
做了个	-9506
巴巴的	-9507
很久没	-9508
很诱人	-9509
值得表扬	-9510
糖醋里脊	-9511
:【	-9512
▁算	-9513
外套	-9514
手脚	-9515
淋上	-9516
肉筋	-9517
四个菜	-9518
电视机	-9519
缺点是	-9520
吃饭时间	-9521
味道也是	-9522
尝了一下	-9523
乖乖	-9524
催促	-9525
先把	-9526
烧腊	-9527
鸡毛	-9528
蔬菜的	-9529
都吃了	-9530
馒头片	-9531
就是为了	-9532
赞不绝口	-9533
的美	-9534
蚵仔	-9535
价格和	-9536
消灭了	-9537
的评价	-9538
点的都是	-9539
的不一样	-9540
口气	-9541
投资	-9542
朱古	-9543
雀巢	-9544
觉得挺	-9545
其中一个	-9546
时间长了	-9547
完全不一样	-9548
痛快	-9549
鲥鱼	-9550
也只能	-9551
已经没有	-9552
丽江	-9553
人会	-9554
十来	-9555
去吧	-9556
天啊	-9557
有卖	-9558
消磨	-9559
的生意	-9560
冬阴功汤	-9561
非常一般	-9562
比较有特色	-9563
ww	-9564
加油	-9565
四溢	-9566
精心	-9567
虾丸	-9568
辛香	-9569
倒是很	-9570
让我很	-9571
还是老	-9572
不是很贵	-9573
不过不失	-9574
好吃的东西	-9575
不齐	-9576
东路	-9577
听的	-9578
堂皇	-9579
平价	-9580
敬业	-9581
南瓜汤	-9582
底下的	-9583
碗米饭	-9584
自行车	-9585
这么个	-9586
露天的	-9587
▁点了个	-9588
干炒牛河	-9589
▁汗	-9590
他在	-9591
千张	-9592
富丽	-9593
慢的	-9594
撒了	-9595
的酱	-9596
臭的	-9597
规则	-9598
一次去	-9599
带来的	-9600
快递员	-9601
想去吃	-9602
无意间	-9603
京酱肉丝	-9604
比较划算	-9605
公里	-9606
好耐	-9607
快捷	-9608
要我	-9609
贵点	-9610
上一个	-9611
出租车	-9612
▁一定要	-9613
点了很多	-9614
~~~~~~~~~	-9615
一进	-9616
最贵	-9617
有肉	-9618
而成	-9619
螺蛳	-9620
说起	-9621
▁刚刚	-9622
了因为	-9623
牛肉片	-9624
都是一样的	-9625
形成	-9626
淡而	-9627
清理	-9628
翻开	-9629
要大	-9630
道口	-9631
买不到	-9632
好多啊	-9633
店门口	-9634
觉得还不错	-9635
也还算	-9636
优惠卷	-9637
的价钱	-9638
闻起来	-9639
二两	-9640
会是	-9641
烩面	-9642
焦的	-9643
配件	-9644
饭吃	-9645
不是说	-9646
在装修	-9647
收到的	-9648
都会点	-9649
一直都是	-9650
我们几个	-9651
▁总体感觉	-9652
信心	-9653
朗姆	-9654
爽脆	-9655
但没有	-9656
台湾人	-9657
商务套餐	-9658
这么多人	-9659
少吃	-9660
芋艿	-9661
起司	-9662
北方人	-9663
品种类	-9664
就那样	-9665
我老公	-9666
十字	-9667
果粒	-9668
椰丝	-9669
死人	-9670
相应	-9671
沙发座	-9672
玩游戏	-9673
的阿姨	-9674
吃了一块	-9675
勾芡	-9676
和风	-9677
她就	-9678
小杨	-9679
放过	-9680
粥和	-9681
way	-9682
最后是	-9683
很好吃啊	-9684
慕名而来	-9685
你会	-9686
保障	-9687
可是我	-9688
本地人	-9689
等了一会	-9690
却不	-9691
奇特	-9692
小镇	-9693
验货	-9694
鹅肠	-9695
很好玩	-9696
所以在	-9697
我们一行	-9698
一刻	-9699
六七	-9700
寿喜	-9701
的天	-9702
种种	-9703
上来说	-9704
以后就	-9705
基本没	-9706
牛油果	-9707
呷哺呷哺	-9708
就能看到	-9709
和老	-9710
打烊	-9711
教堂	-9712
江湖	-9713
深深	-9714
炒肝	-9715
等啊	-9716
上班族	-9717
好好的	-9718
有点冷	-9719
馋嘴蛙	-9720
去过两次	-9721
鸡炖蘑菇	-9722
来这里吃饭	-9723
▁高	-9724
之旅	-9725
姜汁	-9726
教授	-9727
温和	-9728
透过	-9729
鸭汤	-9730
▁老妈	-9731
小胖子	-9732
巨大的	-9733
蛮好吃	-9734
川北凉粉	-9735
慢慢慢慢慢慢慢慢	-9736
·~	-9737
▁咸	-9738
归正	-9739
批发	-9740
桌球	-9741
粘稠	-9742
走来	-9743
送给	-9744
适宜	-9745
明明是	-9746
个头很大	-9747
元了	-9748
养颜	-9749
服饰	-9750
沾上	-9751
离我	-9752
较为	-9753
饼子	-9754
鲳鱼	-9755
不过要	-9756
也是个	-9757
人多了	-9758
应有尽	-9759
蒸排骨	-9760
陆陆续	-9761
鱼肉很嫩	-9762
我也不知道	-9763
决心	-9764
吃鱼	-9765
团队	-9766
工程	-9767
常见	-9768
茶点	-9769
味道太	-9770
陆陆续续	-9771
一样的东西	-9772
章鱼小丸子	-9773
▁不知道为什么	-9774
富贵	-9775
数的	-9776
河南	-9777
瘦的	-9778
那款	-9779
一直很	-9780
一碗面	-9781
可以买	-9782
离公司	-9783
记忆中	-9784
块钱一个	-9785
换换口味	-9786
IF	-9787
▁生	-9788
不香	-9789
到大	-9790
压根	-9791
转了	-9792
不应该	-9793
解决的	-9794
今天中午	-9795
古色古香	-9796
都没什么	-9797
大家推荐的	-9798
感觉很舒服	-9799
▁J	-9800
三丝	-9801
伴着	-9802
口音	-9803
扎实	-9804
是去	-9805
有事	-9806
蕉叶	-9807
▁菜量	-9808
色香味	-9809
我个人觉得	-9810
我哋	-9811
没要	-9812
▁早上	-9813
再说说	-9814
周到的	-9815
大麦茶	-9816
就要了	-9817
点菜时	-9818
都不够	-9819
▁小时候	-9820
不过那个	-9821
ol	-9822
个别	-9823
举办	-9824
二人	-9825
拆开	-9826
虫子	-9827
装着	-9828
随后	-9829
▁作者	-9830
双休日	-9831
可以再	-9832
很多种	-9833
有点腥	-9834
▁以前在	-9835
我的胃口	-9836
里面没有	-9837
宫爆	-9838
表皮	-9839
到后面	-9840
小店的	-9841
得比较	-9842
想尝尝	-9843
的一片	-9844
但在	-9845
廉价	-9846
竹筒	-9847
起初	-9848
▁想想	-9849
土豆饼	-9850
还有其他	-9851
又去了一次	-9852
心态	-9853
服了	-9854
没开	-9855
聚集	-9856
驱动	-9857
原因是	-9858
居然说	-9859
朱古力	-9860
外焦里嫩	-9861
是免费的	-9862
听过	-9863
奔着	-9864
未来	-9865
豆豆	-9866
这顿	-9867
郑州	-9868
原因吧	-9869
他家的菜	-9870
味道浓郁	-9871
味道也一般	-9872
喜欢里面的	-9873
团子	-9874
晕了	-9875
软硬	-9876
辣度	-9877
一下就	-9878
类似的	-9879
请吃饭	-9880
不如以前	-9881
很多次了	-9882
有段时间	-9883
乱七八糟的	-9884
还蛮不错的	-9885
ul	-9886
实习	-9887
弄了	-9888
排的	-9889
斤的	-9890
无咩	-9891
难度	-9892
▁说说	-9893
不多的	-9894
吃吃看	-9895
有人在	-9896
榻榻米	-9897
的要命	-9898
给力的	-9899
这里的服务	-9900
剧院	-9901
头上	-9902
尽兴	-9903
护肤	-9904
片皮	-9905
途中	-9906
温馨的	-9907
还没到	-9908
也很干净	-9909
去吃了一次	-9910
发出	-9911
父亲	-9912
的品质	-9913
一刚	-9914
买票	-9915
又辣	-9916
最少	-9917
熏肉	-9918
转身	-9919
鼓楼	-9920
又没有	-9921
太远了	-9922
是朋友	-9923
是特色	-9924
就是服务	-9925
都很热情	-9926
》,	-9927
分辨	-9928
罗斯	-9929
-_-	-9930
广场的	-9931
有点过	-9932
老师的	-9933
appy	-9934
是最好的	-9935
不知道是不是因为	-9936
up	-9937
三份	-9938
就够	-9939
热狗	-9940
脑袋	-9941
送上	-9942
错的	-9943
▁LG	-9944
最开始	-9945
也可能是	-9946
ta	-9947
目鱼	-9948
直达	-9949
肉汁	-9950
一会就	-9951
一本书	-9952
吃的了	-9953
就是有	-9954
蟹肉棒	-9955
而且还有	-9956
一桌子	-9957
味道比	-9958
住的地方	-9959
功效	-9960
十元	-9961
招行	-9962
清净	-9963
看你	-9964
耽误	-9965
聪明	-9966
装盘	-9967
些什么	-9968
土豆粉	-9969
很香的	-9970
没必要	-9971
▁要不是	-9972
人气美食	-9973
回复	-9974
好贵	-9975
楼里	-9976
紫色	-9977
逛的	-9978
ICE	-9979
▁一次	-9980
好喜欢	-9981
挺贵的	-9982
桌客人	-9983
肯定要	-9984
▁和老公	-9985
于是我们	-9986
味道确实	-9987
▁cake	-9988
fc	-9989
典雅	-9990
厚度	-9991
戒指	-9992
放上	-9993
芝士味	-9994
黄瓜丝	-9995
feel	-9996
和服务员	-9997
味美	-9998
款的	-9999
登记	-10000
通道	-10001
▁奶油	-10002
去那边	-10003
我同学	-10004
正好在	-10005
添加剂	-10006
感觉像是	-10007
▁哦	-10008
乌梅	-10009
小憩	-10010
点才	-10011
留言	-10012
破损	-10013
荤素	-10014
不至于	-10015
的酒店	-10016
希望以后	-10017
一脸	-10018
一袋	-10019
凤凰	-10020
地处	-10021
平菇	-10022
成就	-10023
点后	-10024
留香	-10025
罪恶	-10026
钻石	-10027
▁需要	-10028
好不好	-10029
虽然有	-10030
ream	-10031
上岛	-10032
上帝	-10033
莜面	-10034
衬衫	-10035
间隔	-10036
一直到	-10037
不到位	-10038
环境也	-10039
的美味	-10040
算得上	-10041
一点点的	-10042
不过觉得	-10043
这么大的	-10044
▁早	-10045
▁花	-10046
不差	-10047
商铺	-10048
朝阳	-10049
桌面	-10050
毛钱	-10051
了一种	-10052
关东煮	-10053
很大块	-10054
豆腐煲	-10055
一点味道	-10056
很不错了	-10057
想必	-10058
是家	-10059
酒的	-10060
▁to	-10061
▁中间	-10062
▁锅底	-10063
的一切	-10064
终于在	-10065
▁特	-10066
不熟	-10067
余地	-10068
分成	-10069
别处	-10070
融化	-10071
铜锣	-10072
块一个	-10073
跟他们	-10074
▁据说是	-10075
不错的地方	-10076
任意	-10077
像个	-10078
惦记	-10079
查了	-10080
海蛎	-10081
滋润	-10082
演员	-10083
香了	-10084
吃午饭	-10085
川菜的	-10086
烤出来	-10087
还便宜	-10088
那个人	-10089
▁甜甜的	-10090
真材实料	-10091
---------	-10092
往下	-10093
油泼	-10094
穿了	-10095
蚕豆	-10096
不太会	-10097
失望啊	-10098
就只能	-10099
杯饮料	-10100
能吃饱	-10101
非常大	-10102
上面一层	-10103
的差不多	-10104
端上来了	-10105
前提	-10106
口福	-10107
小白	-10108
座率	-10109
最佳	-10110
背后	-10111
藏在	-10112
逐渐	-10113
不一定	-10114
强人意	-10115
的灯光	-10116
但是口味	-10117
本来想去	-10118
▁找	-10119
价了	-10120
例子	-10121
光明	-10122
况且	-10123
各色	-10124
待遇	-10125
的嘛	-10126
盒饭	-10127
鸡柳	-10128
ING	-10129
了一眼	-10130
制作的	-10131
当时是	-10132
沙茶酱	-10133
辛香汇	-10134
应该不错	-10135
旁边就是	-10136
不咸	-10137
在南	-10138
我倒	-10139
挂号	-10140
风的	-10141
点完菜	-10142
的人们	-10143
菊花茶	-10144
在这家店	-10145
▁上菜速度	-10146
果子	-10147
某某	-10148
要收	-10149
一大锅	-10150
接受不了	-10151
城里	-10152
等人	-10153
下次来	-10154
千岛酱	-10155
小伙子	-10156
已经被	-10157
的地儿	-10158
的还有	-10159
看我们	-10160
老板很	-10161
少得可怜	-10162
跟服务员	-10163
▁粥	-10164
吐了	-10165
天鹅	-10166
怪异	-10167
的对	-10168
路了	-10169
这菜	-10170
也不小	-10171
里还有	-10172
唱的	-10173
开得	-10174
弥补	-10175
懒的	-10176
空了	-10177
覆盖	-10178
鲅鱼	-10179
ood	-10180
▁人均	-10181
中心的	-10182
全都是	-10183
比较淡	-10184
就在附近	-10185
有个什么	-10186
随便吃吃的	-10187
ea	-10188
ra	-10189
假期	-10190
大肉	-10191
西洋	-10192
鸡和	-10193
不用说	-10194
有点淡	-10195
看不见	-10196
逛了一圈	-10197
▁美	-10198
出于	-10199
喷喷	-10200
在你	-10201
igh	-10202
没法比	-10203
鸡腿堡	-10204
不多说了	-10205
非常满意	-10206
我们三个人	-10207
出锅	-10208
底料	-10209
果肉	-10210
正经	-10211
瑕疵	-10212
▁质量	-10213
只知道	-10214
新加坡	-10215
问他们	-10216
男服务员	-10217
两个人点了	-10218
去玩	-10219
是好	-10220
此时	-10221
约好	-10222
▁只好	-10223
如果能	-10224
很厚实	-10225
每道菜	-10226
肚子饿	-10227
试营业	-10228
请我们	-10229
还挺多	-10230
送过来	-10231
慕名而去	-10232
里面的料	-10233
会被	-10234
几道	-10235
刀豆	-10236
判断	-10237
糖藕	-10238
造的	-10239
▁坐在	-10240
水果茶	-10241
吃不出来	-10242
路过的时候	-10243
乐意	-10244
同埋	-10245
打扰	-10246
晕死	-10247
松江	-10248
椰果	-10249
银鱼	-10250
▁难道	-10251
大爱啊	-10252
找到的	-10253
的人生	-10254
还需要	-10255
吃到现在	-10256
肚子饿了	-10257
后海	-10258
多月	-10259
拔草	-10260
時間	-10261
游乐	-10262
翅膀	-10263
▁颜色	-10264
不起来	-10265
了一番	-10266
位置了	-10267
后悔了	-10268
太辣了	-10269
点不到	-10270
独立的	-10271
wifi	-10272
▁喜欢吃	-10273
也很好喝	-10274
干净整洁	-10275
没吃出来	-10276
特别推荐	-10277
的好去处	-10278
▁自	-10279
主厨	-10280
生姜	-10281
相反	-10282
里拉	-10283
食代	-10284
之后的	-10285
就是把	-10286
得不行	-10287
挺快的	-10288
自己是	-10289
FB	-10290
▁牛	-10291
又在	-10292
棒棒	-10293
▁很是	-10294
一般是	-10295
我去的	-10296
的人物	-10297
第二次了	-10298
ml	-10299
乐迪	-10300
五谷	-10301
腐败	-10302
还去	-10303
这下	-10304
你们的	-10305
点到的	-10306
比我想象	-10307
其他的东西	-10308
九折	-10309
会腻	-10310
再有	-10311
心动	-10312
痘痘	-10313
眼力	-10314
青口	-10315
也很赞	-10316
无烟区	-10317
顾客的	-10318
就不行了	-10319
扬州炒饭	-10320
▁双	-10321
十八	-10322
和你	-10323
培养	-10324
岁的	-10325
料足	-10326
是真	-10327
豇豆	-10328
外包装	-10329
特殊的	-10330
猪排饭	-10331
私密性	-10332
我的头发	-10333
在这里吃饭	-10334
太忙	-10335
然後	-10336
▁包装	-10337
▁顺便	-10338
去过了	-10339
有时候会	-10340
朋友聚餐	-10341
水晶虾仁	-10342
卡片	-10343
老鼠	-10344
视野	-10345
面汤	-10346
不能说	-10347
不难吃	-10348
可以送	-10349
小鲍鱼	-10350
有食欲	-10351
偶尔吃吃	-10352
在点评上	-10353
这个问题	-10354
鲜榨果汁	-10355
专程	-10356
冷冻	-10357
咋地	-10358
哲学	-10359
就用	-10360
所说	-10361
黑了	-10362
也都很	-10363
但是也	-10364
使用的	-10365
感觉就	-10366
我之前	-10367
玉米饼	-10368
的朋友们	-10369
里面加了	-10370
di	-10371
▁它	-10372
古镇	-10373
餐包	-10374
也都不错	-10375
没有味道	-10376
浓油赤酱	-10377
清凉	-10378
聊聊	-10379
茴香	-10380
蛋饺	-10381
颗星	-10382
▁交通	-10383
就是用	-10384
点了些	-10385
每天都有	-10386
梅花	-10387
笋丝	-10388
羊角	-10389
没发现	-10390
购买的	-10391
还觉得	-10392
颜色的	-10393
免费停车	-10394
应有尽有	-10395
也快	-10396
名声	-10397
和蔼	-10398
重了	-10399
拿上来	-10400
▁估计是	-10401
不过服务	-10402
佐料	-10403
偶的	-10404
度假	-10405
本土	-10406
烤虾	-10407
白粥	-10408
飞涨	-10409
咸了点	-10410
星期六	-10411
湘菜馆	-10412
烧茄子	-10413
美味了	-10414
过几次	-10415
这附近	-10416
▁第二天	-10417
▁不知道是	-10418
不经	-10419
叫他	-10420
我买	-10421
牌的	-10422
西方	-10423
逛到	-10424
ith	-10425
了一条	-10426
去买了	-10427
香港的	-10428
什么都不	-10429
就看到了	-10430
最重要的	-10431
看到一个	-10432
此店	-10433
鸭胸	-10434
▁早就	-10435
给了我们	-10436
给人一种	-10437
这个不错	-10438
这样的店	-10439
IS	-10440
保养	-10441
向来	-10442
喷泉	-10443
天使	-10444
忙的	-10445
摩托	-10446
略有	-10447
专卖店	-10448
沙发上	-10449
都是小	-10450
▁还不如	-10451
点了一碗	-10452
的很入味	-10453
▁点了一个	-10454
的时候已经	-10455
情有	-10456
来做	-10457
海洋	-10458
比较偏	-10459
芒果汁	-10460
中山公园	-10461
没什么感觉	-10462
不一	-10463
分之	-10464
十个	-10465
台球	-10466
满嘴	-10467
鼻子	-10468
▁那里	-10469
分之一	-10470
找地方	-10471
洗干净	-10472
还吃了	-10473
还要去	-10474
营业时间	-10475
▁按	-10476
不定	-10477
吃辣	-10478
点前	-10479
和家人	-10480
很鲜嫩	-10481
牛排套餐	-10482
▁味道也不错	-10483
内脏	-10484
又嫩	-10485
后才	-10486
肥腻	-10487
集体	-10488
▁最爱	-10489
了以后	-10490
所以也	-10491
抹茶的	-10492
糖醋排骨	-10493
问了服务员	-10494
凤梨	-10495
色素	-10496
走在	-10497
足疗	-10498
跟你	-10499
不去了	-10500
了许多	-10501
当地人	-10502
的菜色	-10503
通心粉	-10504
有待提高	-10505
热巧克力	-10506
的服务态度	-10507
还有个什么	-10508
交钱	-10509
海藻	-10510
盐焗	-10511
茶壶	-10512
鸡煲	-10513
可以了	-10514
普普通	-10515
自然的	-10516
▁三个人	-10517
怎么样了	-10518
郁闷的是	-10519
▁昨天晚上	-10520
和朋友一起	-10521
FE	-10522
bu	-10523
三元	-10524
不带	-10525
多余	-10526
打工	-10527
排到	-10528
最为	-10529
柜子	-10530
看法	-10531
的一半	-10532
那么贵	-10533
▁服务生	-10534
套系	-10535
看好	-10536
金桔	-10537
但是有	-10538
即使是	-10539
当地的	-10540
有些人	-10541
的推荐	-10542
不用说了	-10543
买些	-10544
创作	-10545
实力	-10546
新语	-10547
烟味	-10548
色面	-10549
ass	-10550
不知是	-10551
就是吃	-10552
特色是	-10553
烤出来的	-10554
还有各种	-10555
mp	-10556
▁原	-10557
为你	-10558
之地	-10559
人工	-10560
但却	-10561
快要	-10562
承诺	-10563
蛋花	-10564
做活动	-10565
我真是	-10566
有多少	-10567
胡同里	-10568
不错的了	-10569
快乐柠檬	-10570
还是很多的	-10571
奇异	-10572
尝鲜	-10573
弥漫	-10574
摆了	-10575
椰香	-10576
眼了	-10577
糟糟	-10578
虹口	-10579
kfc	-10580
▁还算	-10581
几乎都	-10582
少了些	-10583
所有人	-10584
无数次	-10585
海鲜汤	-10586
老上海	-10587
具体名字	-10588
现在想想	-10589
的味道也不错	-10590
ty	-10591
三宝	-10592
哪种	-10593
死活	-10594
满口	-10595
试用	-10596
不仅仅	-10597
中午去	-10598
也是有	-10599
也是因为	-10600
不老	-10601
厂家	-10602
参与	-10603
又没	-10604
外层	-10605
山芋	-10606
帝王	-10607
平淡	-10608
汉拿	-10609
讲的	-10610
咖喱味	-10611
来得及	-10612
都唔错	-10613
饮料和	-10614
反正我是	-10615
旁边还有	-10616
久光	-10617
大陆	-10618
层楼	-10619
水里	-10620
舒心	-10621
螺肉	-10622
讲述	-10623
▁家里	-10624
有两种	-10625
点评了	-10626
的话可以	-10627
一律	-10628
不长	-10629
利的	-10630
到货	-10631
天冷	-10632
橱窗	-10633
润发	-10634
特制	-10635
饭是	-10636
红豆冰	-10637
还特意	-10638
不了多少	-10639
完全可以	-10640
......,	-10641
一度	-10642
事的	-10643
开店	-10644
排着	-10645
福建	-10646
黄喉	-10647
坐地铁	-10648
▁很入味	-10649
无线上网	-10650
环境还行	-10651
入去	-10652
叫个	-10653
推薦	-10654
搬家	-10655
生存	-10656
电磁	-10657
一大块	-10658
三国杀	-10659
不好看	-10660
说明书	-10661
负责任	-10662
元的套餐	-10663
吃在嘴里	-10664
感觉有些	-10665
酸酸辣辣	-10666
不过他家的	-10667
KE	-10668
两者	-10669
使劲	-10670
共同	-10671
剔透	-10672
屋企	-10673
河豚	-10674
眼花	-10675
▁用了	-10676
了之后	-10677
味增汤	-10678
普通话	-10679
消费满	-10680
服务也很	-10681
的味道很好	-10682
▁个	-10683
主持	-10684
乳猪	-10685
作料	-10686
忙着	-10687
拿走	-10688
持续	-10689
短发	-10690
香茅	-10691
很多家	-10692
怎么办	-10693
奇怪的是	-10694
没什么好	-10695
ig	-10696
总要	-10697
新闻	-10698
要走	-10699
触摸	-10700
餐的	-10701
ter	-10702
▁吃着	-10703
▁开了	-10704
十分的	-10705
在一楼	-10706
新鲜度	-10707
的不足	-10708
应该就是	-10709
羊肉泡馍	-10710
还过得去	-10711
上是	-10712
作家	-10713
又一	-10714
就问	-10715
皮脆	-10716
肉丁	-10717
选料	-10718
鸡架	-10719
做的好	-10720
先生的	-10721
咬起来	-10722
的师傅	-10723
吃完之后	-10724
比较大的	-10725
一去	-10726
也足	-10727
单调	-10728
四楼	-10729
排档	-10730
红肠	-10731
▁否则	-10732
人家说	-10733
元一串	-10734
来了个	-10735
点去的	-10736
还是很好吃的	-10737
偷工	-10738
各样	-10739
在乎	-10740
客房	-10741
精选	-10742
纯属	-10743
辣汤	-10744
逻辑	-10745
▁北京	-10746
▁铁板	-10747
大小的	-10748
来看看	-10749
的这个	-10750
▁来这里	-10751
三分之一	-10752
价格适中	-10753
加了一份	-10754
热气羊肉	-10755
里面有个	-10756
OM	-10757
▁赞	-10758
▁长	-10759
阳台	-10760
鲜艳	-10761
另一种	-10762
吸引我	-10763
大拉皮	-10764
正好有	-10765
看点评	-10766
贵一点	-10767
不用担心	-10768
是越来越	-10769
最有	-10770
果度	-10771
汉斯	-10772
黏黏	-10773
▁别的	-10774
失去了	-10775
油豆腐	-10776
热腾腾的	-10777
▁整	-10778
几步	-10779
姐们	-10780
时分	-10781
更像	-10782
本的	-10783
节奏	-10784
锦江	-10785
靠着	-10786
▁菜单	-10787
上次在	-10788
必须要	-10789
老百姓	-10790
比较特别	-10791
买上	-10792
这部	-10793
▁奶茶	-10794
也是我	-10795
依然是	-10796
团购券	-10797
应俱全	-10798
这个了	-10799
味道很赞	-10800
最好吃的是	-10801
任务	-10802
失去	-10803
战争	-10804
时令	-10805
桂圆	-10806
考验	-10807
阿婆	-10808
▁卓越	-10809
不要钱	-10810
店员说	-10811
放多了	-10812
钵钵鸡	-10813
和男朋友	-10814
▁清	-10815
堂食	-10816
大片	-10817
捞饭	-10818
甜筒	-10819
舅舅	-10820
通宵	-10821
鲤鱼	-10822
ESE	-10823
优惠的	-10824
所以要	-10825
演唱会	-10826
的大厅	-10827
真好吃	-10828
但我觉得	-10829
不会再来了	-10830
了一段时间	-10831
妈咪	-10832
童年	-10833
蒜茸	-10834
采用	-10835
深刻的	-10836
面包和	-10837
主要还是	-10838
基本就是	-10839
排骨年糕	-10840
人心	-10841
你就	-10842
呈现	-10843
咸鱼	-10844
韧劲	-10845
样子的	-10846
海瓜子	-10847
要好吃	-10848
都是吃	-10849
乳酪蛋糕	-10850
没有一点	-10851
的关系吧	-10852
觉得这个	-10853
op	-10854
容量	-10855
座的	-10856
棒了	-10857
用户	-10858
较少	-10859
飘着	-10860
首歌	-10861
CHE	-10862
也一样	-10863
做的很	-10864
吃掉了	-10865
在广州	-10866
得时候	-10867
我不太	-10868
一面	-10869
和牛	-10870
圈可	-10871
安逸	-10872
范儿	-10873
咖喱蟹	-10874
根本就	-10875
等位子	-10876
适合我	-10877
黑糯米	-10878
▁如果你	-10879
两瓶	-10880
唔够	-10881
教室	-10882
杂烩	-10883
松饼	-10884
谁让	-10885
他们是	-10886
可怜的	-10887
吃个饭	-10888
感觉蛮	-10889
还给我	-10890
预约的	-10891
蟹黄豆腐	-10892
▁这个地方	-10893
后又	-10894
喉咙	-10895
枣泥	-10896
点歌	-10897
集团	-10898
和外面	-10899
恨不得	-10900
泰国菜	-10901
消费了	-10902
的一本	-10903
而且量	-10904
肚子的	-10905
unch	-10906
以后不会	-10907
结果上来	-10908
请客吃饭	-10909
还挺好的	-10910
里面放了	-10911
一口咬下去	-10912
中午的时候	-10913
才好	-10914
液晶	-10915
隔断	-10916
好像叫	-10917
的食物	-10918
服务还不错	-10919
没有什么特色	-10920
▁倒	-10921
介意	-10922
多好	-10923
相册	-10924
请我	-10925
额外	-10926
但就是	-10927
十一点	-10928
手擀面	-10929
甜面酱	-10930
富丽堂皇	-10931
宠物	-10932
意境	-10933
明了	-10934
管饱	-10935
▁并且	-10936
牛肉粉	-10937
言归正	-10938
过来说	-10939
这么贵	-10940
非常棒	-10941
黑黑的	-10942
说的那么	-10943
一勺	-10944
人群	-10945
大爷	-10946
开口	-10947
折后	-10948
这天	-10949
透了	-10950
餐廳	-10951
其他都	-10952
十块钱	-10953
后来在	-10954
标准的	-10955
泡菜饼	-10956
确实很	-10957
▁随便吃吃	-10958
不忍	-10959
中取	-10960
会把	-10961
停留	-10962
来顺	-10963
粗的	-10964
蒜苗	-10965
这张	-10966
這家	-10967
跟同事	-10968
▁和同事	-10969
本来想点	-10970
一筹	-10971
也被	-10972
出奇	-10973
单上	-10974
和烤	-10975
货品	-10976
边角	-10977
饮茶	-10978
▁上周	-10979
就看见	-10980
UT	-10981
▁东	-10982
宝石	-10983
很晚	-10984
本着	-10985
裏面	-10986
完全没	-10987
的小料	-10988
还加了	-10989
还特地	-10990
最后一次	-10991
有很多人	-10992
▁e	-10993
唔算	-10994
太慢	-10995
就选	-10996
局促	-10997
有位	-10998
格的	-10999
▁先说	-11000
切得很	-11001
很有趣	-11002
很爱吃	-11003
一塌糊涂	-11004
也没有了	-11005
都要排队	-11006
不是很方便	-11007
偏辣	-11008
出众	-11009
多吧	-11010
天堂	-11011
帮着	-11012
是全	-11013
而归	-11014
聚聚	-11015
▁寿司	-11016
不能比	-11017
发生了	-11018
口味上	-11019
▁那时候	-11020
也没觉得	-11021
少了很多	-11022
服务员推荐的	-11023
呼吸	-11024
烧麦	-11025
白雪	-11026
▁面条	-11027
包裹着	-11028
和味道	-11029
带我去	-11030
橄榄油	-11031
能吃辣	-11032
淡而无味	-11033
去的时候是	-11034
▁冰	-11035
打扮	-11036
欧尚	-11037
沙爹	-11038
猫猫	-11039
也开了	-11040
多一些	-11041
我都会	-11042
这么久	-11043
鸡腿饭	-11044
一人一个	-11045
感觉还行	-11046
▁看了点评	-11047
新手	-11048
景观	-11049
美观	-11050
规范	-11051
这书	-11052
▁还没	-11053
吃了点	-11054
吃光了	-11055
吸引力	-11056
回到了	-11057
夏天吃	-11058
就是油	-11059
我买了	-11060
我没吃	-11061
要小心	-11062
路那家	-11063
▁有一次	-11064
但是里面	-11065
大家都是	-11066
最后结账	-11067
的一个地方	-11068
修改	-11069
异味	-11070
当做	-11071
治疗	-11072
理石	-11073
莉亚	-11074
菜也	-11075
还带	-11076
這樣	-11077
铁锅	-11078
喝完了	-11079
就显得	-11080
荷兰豆	-11081
装修得	-11082
一口下去	-11083
挺干净的	-11084
我晕	-11085
抽中	-11086
焦了	-11087
了呵呵	-11088
出入	-11089
搞到	-11090
欣慰	-11091
也不想	-11092
也方便	-11093
偷工减	-11094
往里面	-11095
要什么	-11096
平时吃的	-11097
我更喜欢	-11098
比较合适	-11099
非常好的	-11100
仲要	-11101
更为	-11102
涉及	-11103
的辣	-11104
▁时间	-11105
洋葱圈	-11106
烤肉的	-11107
hone	-11108
味道鲜美	-11109
竟然没有	-11110
再也不去了	-11111
味道很浓郁	-11112
它了	-11113
幼儿	-11114
朴实	-11115
精装	-11116
钟爱	-11117
音箱	-11118
▁一看	-11119
可以做	-11120
我估计	-11121
自己做	-11122
还会去	-11123
▁一进门	-11124
人民广场	-11125
这家小店	-11126
典型	-11127
单的	-11128
引起	-11129
很轻	-11130
有过	-11131
毛蟹	-11132
沙子	-11133
画的	-11134
▁品种	-11135
价格上	-11136
里边的	-11137
唯一不足	-11138
我们坐在	-11139
不易	-11140
保存	-11141
别看	-11142
单一	-11143
桌人	-11144
沙滩	-11145
泳池	-11146
满的	-11147
破旧	-11148
都不如	-11149
上菜的时候	-11150
友谊	-11151
考究	-11152
能用	-11153
跑步	-11154
边走	-11155
酥酥	-11156
▁要的	-11157
厚多士	-11158
总有	-11159
淋漓	-11160
许久	-11161
尝一下	-11162
后来我们	-11163
特色就是	-11164
▁论	-11165
代替	-11166
点击	-11167
皇帝	-11168
金属	-11169
▁看见	-11170
尝了下	-11171
靠窗的	-11172
▁这个店	-11173
差强人意	-11174
真的是很	-11175
味道一般吧	-11176
▁爱	-11177
一坨	-11178
人去	-11179
扔了	-11180
王老	-11181
荤的	-11182
上二楼	-11183
GF	-11184
▁y	-11185
不通	-11186
强的	-11187
按键	-11188
说过	-11189
▁好在	-11190
▁我也	-11191
好玩的	-11192
每天都	-11193
落地窗	-11194
预定了	-11195
▁这个是	-11196
我们吃的	-11197
点多去的	-11198
美食广场	-11199
还是第一次	-11200
不时	-11201
发质	-11202
大点	-11203
开阔	-11204
破坏	-11205
酒席	-11206
五个人	-11207
今天去	-11208
切的很	-11209
到这边	-11210
太油腻	-11211
现在都	-11212
而且我	-11213
说一句	-11214
怎么回事	-11215
没有想到	-11216
不过这里的	-11217
喜欢他们家的	-11218
上错	-11219
保险	-11220
又来	-11221
家居	-11222
缤纷	-11223
跟住	-11224
重视	-11225
陈列	-11226
▁不算	-11227
关系吧	-11228
头发的	-11229
猪软骨	-11230
不过里面的	-11231
再看	-11232
松松	-11233
江浙	-11234
自主	-11235
不咋的	-11236
差一点	-11237
打包的	-11238
服务好	-11239
比较快	-11240
中规中矩吧	-11241
才知道原来	-11242
CK	-11243
▁、	-11244
▁该	-11245
加菜	-11246
够辣	-11247
大米	-11248
好书	-11249
尊重	-11250
杂菜	-11251
没来	-11252
转战	-11253
酸笋	-11254
▁值得	-11255
也不过	-11256
回家了	-11257
的海鲜	-11258
肉酱面	-11259
还想吃	-11260
到了那里	-11261
也不怎么样	-11262
▁单	-11263
不妨	-11264
凤尾	-11265
少数	-11266
杭椒	-11267
果真	-11268
柱子	-11269
欲罢	-11270
皮皮	-11271
菜里	-11272
观音	-11273
送人	-11274
酥饼	-11275
铁盘	-11276
长发	-11277
食饭	-11278
▁知道	-11279
下次要	-11280
了一直	-11281
年轻的	-11282
蛋糕和	-11283
酸萝卜	-11284
餐厅里	-11285
不过貌似	-11286
之後	-11287
四喜	-11288
店都	-11289
是被	-11290
月光	-11291
浑身	-11292
熟客	-11293
越大	-11294
一起的	-11295
了一堆	-11296
老半天	-11297
饮料是	-11298
鸡米花	-11299
就不怎么	-11300
最难吃的	-11301
有优惠券	-11302
BT	-11303
引导	-11304
很值	-11305
武昌	-11306
烤肠	-11307
说他	-11308
▁而是	-11309
成功的	-11310
鸡毛菜	-11311
必胜客的	-11312
表扬一下	-11313
这种情况	-11314
还算可以吧	-11315
不由	-11316
和面	-11317
把握	-11318
猫咪	-11319
▁周五	-11320
一路上	-11321
二楼是	-11322
味道蛮	-11323
的同时	-11324
的方式	-11325
的菜肴	-11326
里脊肉	-11327
心心念念	-11328
······	-11329
od	-11330
▁为	-11331
舞蹈	-11332
col	-11333
两个字	-11334
但其实	-11335
偶尔会	-11336
家分店	-11337
旁边有	-11338
炒河粉	-11339
自己在	-11340
这个汤	-11341
都是从	-11342
也是比较	-11343
就去吃了	-11344
所以点了	-11345
的一本书	-11346
靠窗的位子	-11347
▁分	-11348
三黄	-11349
却又	-11350
天河	-11351
菜就	-11352
邻居	-11353
釜山	-11354
鼓浪	-11355
,__	-11356
去哪里	-11357
只点了	-11358
地下室	-11359
流沙包	-11360
烤鱿鱼	-11361
等很久	-11362
还不少	-11363
问题了	-11364
有些地方	-11365
▁我们点了	-11366
......【	-11367
一模	-11368
拇指	-11369
攻略	-11370
看不	-11371
这才	-11372
不大好	-11373
有点乱	-11374
的菜都	-11375
自己家	-11376
还不算	-11377
▁就在家	-11378
来过一次	-11379
那么多的	-11380
非常入味	-11381
两本	-11382
瑞士	-11383
半个月	-11384
吃一口	-11385
奶油味	-11386
打了个	-11387
的店家	-11388
绿豆沙	-11389
芝士的	-11390
很多人都	-11391
所以每次	-11392
▁个人感觉	-11393
双色	-11394
打打	-11395
拖着	-11396
泡饼	-11397
码头	-11398
遍地	-11399
不像是	-11400
卖光了	-11401
玻璃窗	-11402
的同事	-11403
的香气	-11404
都是现	-11405
不太新鲜	-11406
味道也好	-11407
我就觉得	-11408
欲罢不能	-11409
这里还有	-11410
里面的人	-11411
乒乓	-11412
出头	-11413
快到	-11414
筋斗	-11415
网页	-11416
西门	-11417
还把	-11418
▁店内	-11419
咖啡和	-11420
基础上	-11421
排骨饭	-11422
脏兮兮	-11423
erry	-11424
和一般的	-11425
冰粥	-11426
就坐	-11427
我从	-11428
春饼	-11429
模糊	-11430
玛奇	-11431
要先	-11432
说着	-11433
调调	-11434
IFI	-11435
矿泉水	-11436
言归正传	-11437
两款	-11438
力气	-11439
十年	-11440
卖了	-11441
室友	-11442
那個	-11443
时间长	-11444
比较安静	-11445
货真价实	-11446
好次	-11447
少年	-11448
校园	-11449
花枝	-11450
▁很嫩	-11451
▁我在	-11452
做什么	-11453
到时候	-11454
比较老	-11455
猪肉的	-11456
吸引人的	-11457
大堂经理	-11458
最主要的是	-11459
▁南	-11460
几只	-11461
友人	-11462
大量	-11463
心意	-11464
押金	-11465
拜托	-11466
正题	-11467
煲汤	-11468
蟹脚	-11469
钱柜	-11470
鸡粥	-11471
不认识	-11472
中式的	-11473
买这个	-11474
当时的	-11475
不用等位	-11476
只是觉得	-11477
吃了几口	-11478
而且还是	-11479
逛街累了	-11480
▁换	-11481
▁读	-11482
一双	-11483
再到	-11484
冰糖	-11485
吊灯	-11486
每每	-11487
汁儿	-11488
游玩	-11489
钟头	-11490
如果想	-11491
感觉了	-11492
感觉跟	-11493
挺新鲜的	-11494
日式料理	-11495
问了一下	-11496
▁其实就是	-11497
还挺好吃的	-11498
三里	-11499
屁股	-11500
礼盒	-11501
也不行	-11502
得到了	-11503
没注意	-11504
的中午	-11505
超市的	-11506
鸡肉的	-11507
不过环境	-11508
看到很多	-11509
智慧	-11510
案例	-11511
烘焙	-11512
矛盾	-11513
肉啊	-11514
蜜桃	-11515
蟑螂	-11516
西西	-11517
▁周日	-11518
他家是	-11519
自己拿	-11520
不好吃的	-11521
皮蛋豆腐	-11522
一体	-11523
性能	-11524
呼呼的	-11525
嚼起来	-11526
在手里	-11527
更衣室	-11528
但是东西	-11529
▁也不知道	-11530
哎呀	-11531
常年	-11532
票子	-11533
紧凑	-11534
蘸上	-11535
走去	-11536
▁一人	-11537
价钱也	-11538
蛋糕店	-11539
饮料的	-11540
上面还有	-11541
不太方便	-11542
▁怎么说呢	-11543
先来	-11544
又脆	-11545
大楼	-11546
和老板	-11547
好利来	-11548
小时的	-11549
就应该	-11550
有点太	-11551
的很香	-11552
比较入味	-11553
味道也很不错	-11554
低的	-11555
敷衍	-11556
麻薯	-11557
▁你们	-11558
▁有次	-11559
电视剧	-11560
酸酸辣辣的	-11561
危险	-11562
型号	-11563
官网	-11564
浓香	-11565
空着	-11566
等菜	-11567
解辣	-11568
过多	-11569
▁回家	-11570
▁红豆	-11571
明白了	-11572
电磁炉	-11573
的房间	-11574
喜欢那个	-11575
来这里的	-11576
也不是很贵	-11577
的最好吃的	-11578
酸辣土豆丝	-11579
丁丁	-11580
功力	-11581
大开	-11582
就都	-11583
炒米	-11584
甜了	-11585
糖浆	-11586
腐皮	-11587
饼底	-11588
哄哄的	-11589
很重要	-11590
战斗力	-11591
土豆沙拉	-11592
两的	-11593
仔粥	-11594
喝上	-11595
小方	-11596
往上	-11597
完整的	-11598
问我要	-11599
鼓浪屿	-11600
味道没有	-11601
▁内	-11602
便是	-11603
少啊	-11604
把菜	-11605
虽小	-11606
除此	-11607
▁这么	-11608
同志们	-11609
一个人吃	-11610
便宜很多	-11611
VD	-11612
天花	-11613
细嫩	-11614
绝配	-11615
记错	-11616
道德	-11617
鱼刺	-11618
all	-11619
▁房间	-11620
一个劲	-11621
一些的	-11622
便宜点	-11623
可以换	-11624
因为要	-11625
汉拿山	-11626
红辣椒	-11627
要了份	-11628
但是那个	-11629
另外还有	-11630
下午茶套餐	-11631
几点	-11632
干烧	-11633
平凡	-11634
提早	-11635
茶的	-11636
超所	-11637
到一个	-11638
开始了	-11639
知道的	-11640
羊杂汤	-11641
卤水拼盘	-11642
的是一个	-11643
跟我们说	-11644
小弟	-11645
必定	-11646
的去	-11647
糖蒜	-11648
锅鸡	-11649
回到家	-11650
就选了	-11651
灌汤包	-11652
而且在	-11653
味道还是可以的	-11654
了呀	-11655
红楼	-11656
细的	-11657
近期	-11658
饭盒	-11659
鸡胸	-11660
▁鱼肉	-11661
在那儿	-11662
很合适	-11663
很长的	-11664
有点吵	-11665
的火锅	-11666
羊肉汤	-11667
正好赶上	-11668
没有办法	-11669
离家很近	-11670
这样一个	-11671
对于我来说	-11672
再也不会去了	-11673
cc	-11674
▁阿	-11675
不深	-11676
刀叉	-11677
汁的	-11678
滨江	-11679
粤式	-11680
茶碗	-11681
行动	-11682
词典	-11683
越多	-11684
这也	-11685
适当	-11686
▁桌子	-11687
很家常	-11688
基本上都	-11689
进去以后	-11690
事了	-11691
听听	-11692
师大	-11693
无视	-11694
法棍	-11695
琢磨	-11696
轻易	-11697
邻桌	-11698
香滑	-11699
▁一楼	-11700
一分钱	-11701
了一顿	-11702
事实上	-11703
几道菜	-11704
同学的	-11705
就是我	-11706
片皮鸭	-11707
的历史	-11708
类型的	-11709
都不想	-11710
馋嘴牛蛙	-11711
饭点的时候	-11712
最喜欢的还是	-11713
个儿	-11714
公共	-11715
和汤	-11716
器械	-11717
心了	-11718
葱姜	-11719
长大	-11720
▁香菇	-11721
就给我	-11722
很惬意	-11723
梅干菜	-11724
腌制的	-11725
味道尚可	-11726
带我去的	-11727
CC	-11728
下一	-11729
之余	-11730
协调	-11731
当晚	-11732
注释	-11733
秋天	-11734
米粒	-11735
过油	-11736
中间是	-11737
玛奇朵	-11738
的优惠	-11739
一个一个	-11740
对面就是	-11741
觉得还是	-11742
一说	-11743
上得	-11744
制造	-11745
实验	-11746
小巷	-11747
弄个	-11748
德克	-11749
拆了	-11750
拿起	-11751
来来	-11752
清洗	-11753
用着	-11754
第五	-11755
跳墙	-11756
名字的	-11757
和豆腐	-11758
尝一尝	-11759
居民区	-11760
虽然说	-11761
、、、、	-11762
都是比较	-11763
-------------	-11764
上过	-11765
国贸	-11766
天热	-11767
心灵	-11768
挑的	-11769
殷勤	-11770
硬是	-11771
糖果	-11772
肉了	-11773
落去	-11774
口感很	-11775
很专业	-11776
很郁闷	-11777
时间去	-11778
菜上的	-11779
不过好像	-11780
提前一天	-11781
味道都还不错	-11782
▁后	-11783
狠狠	-11784
行李	-11785
野山	-11786
▁牛蛙	-11787
▁相当	-11788
不会像	-11789
不断的	-11790
买的人	-11791
但是却	-11792
凑热闹	-11793
听不懂	-11794
就是太	-11795
已经在	-11796
王老吉	-11797
的那么	-11798
看出来	-11799
稻香村	-11800
老年人	-11801
闹中取	-11802
去了几次	-11803
ma	-11804
人声	-11805
女装	-11806
相互	-11807
肉糜	-11808
路由	-11809
已经不	-11810
物超所	-11811
觉得是	-11812
▁初	-11813
八卦	-11814
心血	-11815
成日	-11816
维络	-11817
进出	-11818
闲逛	-11819
▁不過	-11820
不过就	-11821
分量足	-11822
历史的	-11823
原材料	-11824
拉面的	-11825
还是能	-11826
马兰头	-11827
一共花了	-11828
还是蛮好吃的	-11829
唔好	-11830
蟹柳	-11831
才好吃	-11832
把自己	-11833
有朋友	-11834
不是太好	-11835
油腻腻的	-11836
还有几个	-11837
那么大的	-11838
里面的环境	-11839
--------------	-11840
os	-11841
很会	-11842
秘密	-11843
鱼肚	-11844
不停地	-11845
你自己	-11846
吃到过	-11847
的老板	-11848
而言之	-11849
说不出	-11850
面包片	-11851
老爸老妈	-11852
▁回	-11853
▁拌	-11854
规划	-11855
觉着	-11856
语法	-11857
▁似乎	-11858
▁前天	-11859
块左右	-11860
强多了	-11861
是不能	-11862
蓝莓酱	-11863
身份证	-11864
▁刚开业	-11865
价格还算	-11866
试了一下	-11867
咕噜	-11868
哪能	-11869
她是	-11870
床上	-11871
明太	-11872
木质	-11873
极度	-11874
此外	-11875
湿润	-11876
的门	-11877
碗筷	-11878
空运	-11879
街头	-11880
▁一碗	-11881
▁抹茶	-11882
停车费	-11883
包间里	-11884
可圈可	-11885
的什么	-11886
的气氛	-11887
茄子煲	-11888
萨莉亚	-11889
還不錯	-11890
非常香	-11891
总体来讲	-11892
非常新鲜	-11893
ue	-11894
一點	-11895
报道	-11896
▁店家	-11897
上菜了	-11898
圆白菜	-11899
很健康	-11900
很热闹	-11901
生牛肉	-11902
进行了	-11903
也很舒服	-11904
套餐里的	-11905
南国	-11906
发呆	-11907
大热	-11908
摆的	-11909
新鮮	-11910
溜溜	-11911
神仙	-11912
▁就像	-11913
其他家	-11914
奶茶的	-11915
有木有	-11916
看一下	-11917
▁还是很	-11918
大多都是	-11919
最后我们	-11920
鸳鸯锅底	-11921
其实我觉得	-11922
周年	-11923
大夫	-11924
後來	-11925
惊人	-11926
没见	-11927
浸在	-11928
百香	-11929
距地	-11930
都满	-11931
风暴	-11932
▁是个	-11933
▁这边	-11934
在南京	-11935
小米粥	-11936
我可以	-11937
搞定了	-11938
有人来	-11939
蓝色的	-11940
那么久	-11941
非常嫩	-11942
看到这个	-11943
绝对不是	-11944
还是一如既往	-11945
各地	-11946
我先	-11947
解放	-11948
▁干锅	-11949
我不吃	-11950
棉花糖	-11951
的下午	-11952
看完了	-11953
跑过来	-11954
进来的	-11955
一应俱全	-11956
的味道还可以	-11957
▁.	-11958
一咬	-11959
不合	-11960
了好	-11961
小桥	-11962
▁甚至	-11963
▁等等	-11964
人很好	-11965
吸收了	-11966
和辣椒	-11967
▁前两天	-11968
▁味道还行	-11969
▁陪	-11970
三家	-11971
垫底	-11972
太老	-11973
愉悦	-11974
和老妈	-11975
就是好	-11976
活动的	-11977
老豆腐	-11978
芝麻糊	-11979
鹅肝酱	-11980
以前一直	-11981
去了两次	-11982
太原	-11983
景象	-11984
煎包	-11985
答复	-11986
级别	-11987
肋排	-11988
食的	-11989
▁人气	-11990
▁最好	-11991
佛跳墙	-11992
因为他	-11993
康师傅	-11994
电影票	-11995
的一次	-11996
都是有	-11997
生意一直	-11998
港式茶餐厅	-11999
mi	-12000
▁l	-12001
上边	-12002
出示	-12003
板凳	-12004
环节	-12005
的但	-12006
称为	-12007
▁周围	-12008
也有些	-12009
又加了	-12010
鱼头汤	-12011
▁总觉得	-12012
不过里面	-12013
价格小贵	-12014
第一次是	-12015
肉食动物	-12016
结帐的时候	-12017
UN	-12018
不油	-12019
与众	-12020
两吃	-12021
卷饼	-12022
又甜	-12023
梭边	-12024
没到	-12025
所说的	-12026
是有点	-12027
火腿肠	-12028
试了试	-12029
我们都是	-12030
有免费的	-12031
ke	-12032
一餐	-12033
奥运	-12034
洋房	-12035
还贵	-12036
一家的	-12037
打算去	-12038
黄黄的	-12039
WIFI	-12040
卖相不错	-12041
味道很香	-12042
一汤	-12043
嘴馋	-12044
头大	-12045
嫌疑	-12046
宜芝	-12047
数学	-12048
新华	-12049
认可	-12050
辣得	-12051
▁PS	-12052
▁以为	-12053
之前就	-12054
但是又	-12055
出现在	-12056
加工费	-12057
喜欢了	-12058
就不敢	-12059
情调的	-12060
最小的	-12061
这个我	-12062
但是环境	-12063
心理准备	-12064
服务小姐	-12065
蟹粉小笼	-12066
比较喜欢的	-12067
av	-12068
减少	-12069
分类	-12070
刚从	-12071
半碗	-12072
口袋	-12073
台面	-12074
器皿	-12075
没放	-12076
烤箱	-12077
肉多	-12078
要叫	-12079
过头	-12080
钥匙	-12081
也特别	-12082
去的人	-12083
幸福的	-12084
所以说	-12085
▁虽然是	-12086
不会觉得	-12087
也很方便	-12088
葱油拌面	-12089
服务员很热情	-12090
亏了	-12091
店是	-12092
疑惑	-12093
神经	-12094
元不等	-12095
奇怪了	-12096
就有了	-12097
我实在	-12098
真的挺	-12099
香喷喷	-12100
高峰期	-12101
太难吃了	-12102
突然发现	-12103
味道也还可以	-12104
▁手	-12105
向我	-12106
把书	-12107
烤好	-12108
臭味	-12109
融入	-12110
退掉	-12111
鱼滑	-12112
ine	-12113
▁烤鸭	-12114
一样了	-12115
了一跳	-12116
到位的	-12117
有一层	-12118
的而且	-12119
还不知道	-12120
不干	-12121
出售	-12122
真够	-12123
秋千	-12124
粘牙	-12125
肉都	-12126
肉香	-12127
自身	-12128
还用	-12129
领位	-12130
鸭皮	-12131
▁BF	-12132
▁排骨	-12133
好几种	-12134
我们了	-12135
来吃吃	-12136
等位的	-12137
大家可以	-12138
就是一般	-12139
巧克力慕斯	-12140
元起	-12141
号了	-12142
够吃	-12143
平日	-12144
情感	-12145
的白	-12146
起身	-12147
▁一口	-12148
▁麻辣	-12149
出来后	-12150
送外卖	-12151
coco	-12152
偷工减料	-12153
可惜的是	-12154
▁选	-12155
个子	-12156
去掉	-12157
当作	-12158
相约	-12159
菜场	-12160
赶着	-12161
▁不如	-12162
▁其次	-12163
一次的	-12164
周边的	-12165
姐妹们	-12166
我们坐	-12167
推出了	-12168
很好吃哦	-12169
兴隆	-12170
王子	-12171
语的	-12172
走过来	-12173
一个朋友	-12174
全部都是	-12175
我们要的	-12176
中规中矩的	-12177
从未	-12178
到哪	-12179
茶楼	-12180
象是	-12181
▁网上	-12182
但是量	-12183
大馄饨	-12184
装修很	-12185
豆腐脑	-12186
所以经常	-12187
比想象中	-12188
兴冲	-12189
影城	-12190
打球	-12191
请的	-12192
餐盘	-12193
一阵子	-12194
太慢了	-12195
宽敞的	-12196
都感觉	-12197
酱牛肉	-12198
HIGH	-12199
▁光	-12200
坛子	-12201
境界	-12202
想了	-12203
那股	-12204
面部	-12205
餐点	-12206
水果和	-12207
牛肉饼	-12208
的那家	-12209
里面放	-12210
一起去了	-12211
总得来说	-12212
水煮肉片	-12213
结果还是	-12214
咯吱	-12215
售货	-12216
夏日	-12217
收的	-12218
榛子	-12219
猪骨	-12220
看他	-12221
编辑	-12222
罗汉	-12223
胶原	-12224
问过	-12225
革命	-12226
划算了	-12227
号称是	-12228
实体店	-12229
有点远	-12230
油烟味	-12231
竟然有	-12232
都会去	-12233
对于我们	-12234
就知道了	-12235
都不是很	-12236
happy	-12237
服务还可以	-12238
BO	-12239
▁怕	-12240
制度	-12241
单人	-12242
帖子	-12243
昆明	-12244
适口	-12245
陈皮	-12246
▁又是	-12247
▁很小	-12248
元一只	-12249
吃不厌	-12250
啊不过	-12251
所以才	-12252
海蜇头	-12253
给客人	-12254
都几好	-12255
不喜欢的	-12256
根本不是	-12257
▁我很喜欢	-12258
怀疑是不是	-12259
MP	-12260
免得	-12261
味噌	-12262
日文	-12263
羽绒	-12264
花头	-12265
营销	-12266
订购	-12267
食肉	-12268
▁本书	-12269
▁给我	-12270
上错了	-12271
很好了	-12272
点开始	-12273
玩意儿	-12274
上来之后	-12275
不知是不是	-12276
忘记名字了	-12277
一早	-12278
散发	-12279
浦江	-12280
芥菜	-12281
蔓越	-12282
说法	-12283
过得	-12284
金额	-12285
▁后面	-12286
也蛮好	-12287
六个人	-12288
分钟就	-12289
常吃的	-12290
放心的	-12291
比较差	-12292
这个的	-12293
味道确实不错	-12294
优质	-12295
变态	-12296
怀着	-12297
的风	-12298
端上	-12299
赞了	-12300
黑鸭	-12301
▁人多	-12302
▁印象	-12303
▁属于	-12304
倒胃口	-12305
分店的	-12306
很少有	-12307
旗舰店	-12308
有点酸	-12309
有的人	-12310
粉蒸肉	-12311
自带的	-12312
而且感觉	-12313
口味还不错	-12314
我们四个人	-12315
么撒	-12316
了得	-12317
板上	-12318
著作	-12319
蟹籽	-12320
随手	-12321
▁点菜	-12322
▁点评	-12323
▁自助	-12324
为主的	-12325
少不了	-12326
来的人	-12327
比如说	-12328
热乎乎	-12329
院子里	-12330
但是如果	-12331
但是就是	-12332
西红柿鸡蛋	-12333
盗版书盗版书	-12334
临近	-12335
先吃	-12336
再用	-12337
即将	-12338
沙县	-12339
牙签	-12340
草草	-12341
诚意	-12342
道上	-12343
顶着	-12344
▁附近	-12345
土豆和	-12346
的没有	-12347
离开了	-12348
觉得比	-12349
豆腐花	-12350
那天是	-12351
食物的	-12352
吃了一顿	-12353
总体而言	-12354
推荐的是	-12355
无所谓了	-12356
▁很不错的	-12357
但是服务员	-12358
农村	-12359
圣代	-12360
很脏	-12361
油水	-12362
维持	-12363
胚芽	-12364
跟她	-12365
香米	-12366
骨架	-12367
没看见	-12368
的店了	-12369
超大的	-12370
食堂的	-12371
人比较少	-12372
别的东西	-12373
好像还有	-12374
宫爆鸡丁	-12375
面包新语	-12376
叫什么名字	-12377
▁主	-12378
只给	-12379
多半	-12380
完善	-12381
建立	-12382
当成	-12383
果个	-12384
蒜味	-12385
资源	-12386
▁还行	-12387
再配上	-12388
很惊艳	-12389
看不懂	-12390
朋友请客	-12391
还是那么	-12392
里面东西	-12393
cm	-12394
再三	-12395
名叫	-12396
场子	-12397
我用	-12398
春鱼	-12399
朵颐	-12400
津津	-12401
观众	-12402
一群人	-12403
合理的	-12404
同事的	-12405
太淡了	-12406
对身体	-12407
端上桌	-12408
从头到尾	-12409
水煮鲶鱼	-12410
就是这样的	-12411
充值	-12412
剪了	-12413
又能	-12414
多些	-12415
学术	-12416
完好	-12417
小二	-12418
巴西	-12419
年来	-12420
彩色	-12421
想把	-12422
放学	-12423
望去	-12424
活鱼	-12425
淮扬	-12426
甘甜	-12427
疑问	-12428
鲜花	-12429
▁大爱	-12430
本身就	-12431
的一直	-12432
学校附近	-12433
很多时候	-12434
酸辣笋尖	-12435
还有一个什么	-12436
内衣	-12437
南翔	-12438
好甜	-12439
物质	-12440
食量	-12441
三黄鸡	-12442
十几块	-12443
没几个	-12444
的一天	-12445
真是个	-12446
试一试	-12447
魔芋丝	-12448
一杯咖啡	-12449
最后上的	-12450
各式各样的	-12451
是很不错的	-12452
中上	-12453
元吧	-12454
创造	-12455
吃货	-12456
很酸	-12457
收货	-12458
时就	-12459
谁叫	-12460
和价格	-12461
我也就	-12462
挺足的	-12463
提一下	-12464
是相当	-12465
的很快	-12466
的手法	-12467
喝了一口	-12468
总体评价	-12469
我第一次	-12470
没有其他	-12471
测试测试	-12472
点半左右	-12473
啧啧	-12474
在等	-12475
模型	-12476
洗面	-12477
灯笼	-12478
鸭腿	-12479
ind	-12480
▁这款	-12481
啊哈哈	-12482
我本来	-12483
我都没	-12484
烤肉店	-12485
的桌子	-12486
蔬菜和	-12487
我要的是	-12488
觉得自己	-12489
特别喜欢吃	-12490
不堪	-12491
写得	-12492
劲了	-12493
大盆	-12494
林的	-12495
欧美	-12496
英雄	-12497
话剧	-12498
踏实	-12499
躺在	-12500
醋溜	-12501
颇有	-12502
加入了	-12503
日料店	-12504
蛮嫩的	-12505
说这家	-12506
这两样	-12507
难道是	-12508
叫什么了	-12509
价目	-12510
应为	-12511
我到	-12512
改天	-12513
每日	-12514
石斑	-12515
芝心	-12516
迟迟	-12517
ust	-12518
▁个头	-12519
▁经过	-12520
上面还	-12521
今天是	-12522
健身房	-12523
我还没	-12524
杯奶茶	-12525
金钱豹	-12526
鸡肉串	-12527
▁是不是	-12528
没有想象中的	-12529
LI	-12530
只在	-12531
托盘	-12532
提子	-12533
查询	-12534
还被	-12535
降低	-12536
隆重	-12537
口味都	-12538
大众化	-12539
烂烂的	-12540
蛮高的	-12541
有点咸了	-12542
牛肉很嫩	-12543
MI	-12544
TO	-12545
会的	-12546
危机	-12547
吃呢	-12548
妇女	-12549
定价	-12550
标注	-12551
穿越	-12552
转悠	-12553
香葱	-12554
▁火锅	-12555
很客气	-12556
按摩师	-12557
满多的	-12558
的一家了	-12559
越来越少	-12560
都很满意	-12561
不浓	-12562
叙述	-12563
吃喝	-12564
塞牙	-12565
没说	-12566
隔着	-12567
下雨天	-12568
以后再	-12569
俄罗斯	-12570
分熟的	-12571
又来了	-12572
处理的	-12573
我都是	-12574
挑了个	-12575
过头了	-12576
骨头锅	-12577
不过最近	-12578
主要就是	-12579
也不觉得	-12580
上学的时候	-12581
CHEESE	-12582
一座	-12583
不释	-12584
忌廉	-12585
松脆	-12586
激烈	-12587
点小	-12588
破的	-12589
蹄髈	-12590
书中的	-12591
图片上	-12592
的美食	-12593
▁大家都	-12594
一个星期	-12595
我们没有	-12596
抱着试试	-12597
---------------	-12598
▁快	-12599
一亮	-12600
乐乎	-12601
太吵	-12602
少放	-12603
报销	-12604
没买	-12605
薄片	-12606
另一家	-12607
和上海	-12608
坐下后	-12609
对自己	-12610
很高兴	-12611
恶心的	-12612
新装修	-12613
的这家	-12614
酸黄瓜	-12615
▁关键是	-12616
比较多的	-12617
實在	-12618
小坐	-12619
挺香	-12620
表妹	-12621
语气	-12622
零钱	-12623
ffe	-12624
▁从来	-12625
▁有时	-12626
一般人	-12627
听起来	-12628
咖喱的	-12629
斜对面	-12630
的孩子	-12631
菜市场	-12632
▁很适合	-12633
▁这样的	-12634
一下子就	-12635
入面	-12636
几份	-12637
几条	-12638
奶粉	-12639
宝山	-12640
三里屯	-12641
下了班	-12642
很值得	-12643
用筷子	-12644
酱油炒饭	-12645
NN	-12646
不脆	-12647
不赖	-12648
响油	-12649
好想	-12650
希腊	-12651
报名	-12652
改革	-12653
爽了	-12654
瓶的	-12655
裹了	-12656
两个小	-12657
口感好	-12658
有嚼头	-12659
来吃饭	-12660
淡了点	-12661
现在有	-12662
还是个	-12663
但是后来	-12664
我还以为	-12665
清炒虾仁	-12666
还是蛮大的	-12667
-------	-12668
一手	-12669
两点	-12670
前去	-12671
强大	-12672
着我	-12673
粉色	-12674
菜花	-12675
边缘	-12676
遇见	-12677
不超过	-12678
才花了	-12679
换一个	-12680
最让我	-12681
现在还	-12682
这家店在	-12683
ha	-12684
亲们	-12685
依稀	-12686
售票	-12687
新菜	-12688
熊猫	-12689
的歌	-12690
线路	-12691
吴江路	-12692
店不大	-12693
影响了	-12694
的点了	-12695
评价了	-12696
这个小	-12697
都是我	-12698
喝下午茶	-12699
才知道是	-12700
元宝	-12701
八佰	-12702
国美	-12703
宁静	-12704
牙口	-12705
离的	-12706
红红	-12707
饥肠	-12708
▁他说	-12709
农家乐	-12710
可以多	-12711
平安夜	-12712
撑死了	-12713
早点去	-12714
这套书	-12715
▁跟朋友	-12716
三文鱼和	-12717
找服务员	-12718
了这	-12719
人类	-12720
去大	-12721
反倒	-12722
注册	-12723
目录	-12724
西柚	-12725
▁鱿鱼	-12726
一些小	-12727
不算太	-12728
叫他们	-12729
水果的	-12730
上来的是	-12731
也不至于	-12732
物价飞涨	-12733
一晚	-12734
忐忑	-12735
气了	-12736
▁其中	-12737
的品牌	-12738
的因为	-12739
超好的	-12740
▁没办法	-12741
吃着吃着	-12742
所以这次	-12743
而且都是	-12744
说实在的	-12745
环境很一般	-12746
园区	-12747
工厂	-12748
怀孕	-12749
本本	-12750
着脸	-12751
蚬子	-12752
阴影	-12753
非得	-12754
鸡肋	-12755
▁加了	-12756
不错啊	-12757
在中国	-12758
生活中	-12759
重点是	-12760
一不小心	-12761
价格方面	-12762
吓了一跳	-12763
总之就是	-12764
还能接受	-12765
对于我这种	-12766
nd	-12767
举行	-12768
传奇	-12769
保湿	-12770
出來	-12771
安心	-12772
很忙	-12773
江西	-12774
浮云	-12775
清单	-12776
皇家	-12777
茶馆	-12778
▁不得	-12779
▁价位	-12780
▁具体	-12781
情有独	-12782
的方法	-12783
这里面	-12784
鸡腿肉	-12785
剩了	-12786
堵车	-12787
客的	-12788
炸酱	-12789
硬了	-12790
诚信	-12791
一楼是	-12792
亦乐乎	-12793
然后在	-12794
煮干丝	-12795
蚵仔煎	-12796
饺子的	-12797
▁一般般	-12798
味道不好	-12799
三文鱼寿司	-12800
嚷嚷	-12801
样样	-12802
橘子	-12803
热门	-12804
用完	-12805
留了	-12806
病人	-12807
不会去	-12808
大桌子	-12809
的好处	-12810
自己烤	-12811
艇仔粥	-12812
造型师	-12813
普普通通	-12814
味道还行吧	-12815
开关	-12816
显卡	-12817
未必	-12818
照着	-12819
的料	-12820
笑话	-12821
初学者	-12822
最高的	-12823
有点苦	-12824
自己带	-12825
该有的	-12826
好像都是	-12827
的老字号	-12828
这种感觉	-12829
▁with	-12830
不怎么喜欢	-12831
一号	-12832
一粒	-12833
串烧	-12834
当你	-12835
水池	-12836
稀稀	-12837
老娘	-12838
西冷	-12839
西藏	-12840
要来	-12841
邀请	-12842
隐形	-12843
▁再说	-12844
就一般	-12845
的一餐	-12846
试吃的	-12847
进去过	-12848
就不知道	-12849
就知道是	-12850
星级酒店	-12851
晶莹剔透	-12852
正好路过	-12853
叫这个名字	-12854
还是什么的	-12855
不低	-12856
元和	-12857
卖点	-12858
吃下	-12859
的长	-12860
绿茵	-12861
翻翻	-12862
荷花	-12863
蜜豆	-12864
饿的	-12865
黑暗	-12866
但因为	-12867
全部是	-12868
特别大	-12869
▁大概是	-12870
也很漂亮	-12871
大家一起	-12872
朋友小聚	-12873
尝试了一下	-12874
价格也不便宜	-12875
事后	-12876
产的	-12877
奶泡	-12878
对话	-12879
文明	-12880
死党	-12881
浓烈	-12882
港汇	-12883
▁st	-12884
了一款	-12885
同学们	-12886
微微的	-12887
所以很	-12888
真实的	-12889
一起来的	-12890
做的味道	-12891
做的很好	-12892
▁去过两次	-12893
小鸡炖蘑菇	-12894
不掉	-12895
作罢	-12896
打底	-12897
省了	-12898
老式	-12899
诧异	-12900
项链	-12901
▁不够	-12902
▁虾仁	-12903
八佰伴	-12904
大一点	-12905
很细心	-12906
是招牌	-12907
有感觉	-12908
的人也	-12909
跟其他	-12910
和朋友去	-12911
看完电影	-12912
我不喜欢吃	-12913
▁七	-12914
叫上	-12915
基地	-12916
带回	-12917
最先	-12918
每到	-12919
片和	-12920
看上	-12921
美景	-12922
肚丝	-12923
陪我	-12924
鹅掌	-12925
生意太好了	-12926
最喜欢的就是	-12927
但这	-12928
利亚	-12929
品的	-12930
喧闹	-12931
彼此	-12932
甜美	-12933
的花	-12934
经络	-12935
货物	-12936
通俗	-12937
▁沙拉	-12938
也相当	-12939
点的话	-12940
现在也	-12941
睡着了	-12942
让大家	-12943
在这附近	-12944
小胖子偶	-12945
还会去的	-12946
进去看看	-12947
不是我喜欢的	-12948
已久	-12949
正点	-12950
汤了	-12951
警察	-12952
锈钢	-12953
么就是	-12954
参加了	-12955
炒牛肉	-12956
白米饭	-12957
让人很	-12958
▁今天去	-12959
受不了了	-12960
应该不是	-12961
的小伙子	-12962
的很干净	-12963
WA	-12964
▁了	-12965
上市	-12966
正巧	-12967
章节	-12968
虫草	-12969
账单	-12970
货到	-12971
辘辘	-12972
▁烤肉	-12973
上大学	-12974
也是在	-12975
亲切的	-12976
价位的	-12977
会员价	-12978
大学生	-12979
开胃菜	-12980
比较足	-12981
能找到	-12982
露天位	-12983
LOGO	-12984
挺一般的	-12985
自带酒水	-12986
莫名其妙	-12987
觉得好吃	-12988
鳗鱼寿司	-12989
打电话过去	-12990
口腔	-12991
梦幻	-12992
照例	-12993
社区	-12994
通病	-12995
鱼排	-12996
太老了	-12997
還可以	-12998
就餐环境	-12999
心情不好	-13000
已经没有了	-13001
伦不	-13002
做做	-13003
兔头	-13004
干掉	-13005
打过	-13006
有得	-13007
着小	-13008
那张	-13009
了一瓶	-13010
做得好	-13011
可真是	-13012
往里走	-13013
比较硬	-13014
荞麦面	-13015
没有看到	-13016
都坐满了	-13017
什么都没有	-13018
书里	-13019
侧面	-13020
叉子	-13021
哩度	-13022
想在	-13023
演奏	-13024
激情	-13025
稠的	-13026
隐约	-13027
▁算了	-13028
了一只	-13029
了一套	-13030
就让我	-13031
烤生蚝	-13032
紫色的	-13033
这种店	-13034
金汉斯	-13035
限量的	-13036
打电话给	-13037
味道怪怪的	-13038
越来越少了	-13039
▁如	-13040
三斤	-13041
别提	-13042
咸香	-13043
圈子	-13044
圣经	-13045
棒子	-13046
纸袋	-13047
细面	-13048
顺道	-13049
ess	-13050
▁最早	-13051
一种是	-13052
办婚宴	-13053
取消了	-13054
好之后	-13055
很少的	-13056
得到的	-13057
核桃仁	-13058
环境嘛	-13059
糊糊的	-13060
级别的	-13061
芝士条	-13062
酸甜的	-13063
▁也就是	-13064
不过这家	-13065
两个女生	-13066
去了这家	-13067
Pizza	-13068
▁菜的味道	-13069
悲催	-13070
海肠	-13071
读完	-13072
人民币	-13073
值得的	-13074
当天的	-13075
时间太	-13076
流行的	-13077
留下的	-13078
纯正的	-13079
那味道	-13080
里面就	-13081
不错的说	-13082
是必点的	-13083
有些东西	-13084
饥肠辘辘	-13085
▁华	-13086
▁额	-13087
卖完	-13088
海草	-13089
论坛	-13090
黄酒	-13091
▁套餐	-13092
五分钟	-13093
哪里的	-13094
的作品	-13095
的小说	-13096
我们还是	-13097
古色古香的	-13098
点了几个菜	-13099
俱乐	-13100
同伴	-13101
就冲	-13102
纸上	-13103
醪糟	-13104
顾问	-13105
▁汤汁	-13106
▁甜品	-13107
上的是	-13108
个热菜	-13109
也不像	-13110
只能在	-13111
可能我	-13112
培根卷	-13113
寿司店	-13114
有点差	-13115
cake	-13116
人挺多的	-13117
十几分钟	-13118
坐在那里	-13119
一点都不好吃	-13120
服务员态度很好	-13121
开个	-13122
浙江	-13123
滑蛋	-13124
生病	-13125
该店	-13126
说句	-13127
银杏	-13128
鼎鼎	-13129
也不要	-13130
只是在	-13131
只能是	-13132
就过来	-13133
居然要	-13134
炸豆腐	-13135
的心态	-13136
说这里	-13137
辣肉面	-13138
价格有点小贵	-13139
ll	-13140
也无	-13141
姜丝	-13142
户外	-13143
文笔	-13144
没带	-13145
省钱	-13146
系度	-13147
预算	-13148
比这个	-13149
的人群	-13150
书的内容	-13151
大家说的	-13152
就是喜欢	-13153
质量问题	-13154
购物中心	-13155
辣的朋友	-13156
五星级酒店	-13157
就很一般了	-13158
很喜欢他家的	-13159
头顶	-13160
得意	-13161
混搭	-13162
潮汕	-13163
用小	-13164
门牌	-13165
STA	-13166
决定去	-13167
哇咔咔	-13168
带回去	-13169
甜辣酱	-13170
的电话	-13171
蛋黄酱	-13172
说他们	-13173
那会儿	-13174
因为这个	-13175
卷发	-13176
当日	-13177
急着	-13178
正如	-13179
直门	-13180
面片	-13181
频繁	-13182
▁手机	-13183
上座率	-13184
东来顺	-13185
也经常	-13186
晒太阳	-13187
有各种	-13188
有时会	-13189
吃了好几	-13190
现在好像	-13191
看了菜单	-13192
随便吃点	-13193
鸡肉很嫩	-13194
可以去试试	-13195
每次去都是	-13196
gg	-13197
一樣	-13198
也想	-13199
你不	-13200
保质	-13201
倒霉	-13202
又小	-13203
导购	-13204
態度	-13205
散的	-13206
窗帘	-13207
笑的	-13208
缺陷	-13209
老早	-13210
谈谈	-13211
首饰	-13212
价格贵	-13213
去的是	-13214
和一般	-13215
想吃点	-13216
时代的	-13217
真的太	-13218
不下去了	-13219
印象比较深	-13220
上乘	-13221
各么	-13222
四块	-13223
挺快	-13224
照样	-13225
碗的	-13226
老街	-13227
自信	-13228
贝类	-13229
音量	-13230
风光	-13231
上面撒	-13232
分开的	-13233
用起来	-13234
的奶茶	-13235
细心的	-13236
强烈要求	-13237
很久没有	-13238
情有独钟	-13239
所以一直	-13240
推荐的菜	-13241
看到有人	-13242
以内	-13243
六点	-13244
噪音	-13245
就跑	-13246
掏钱	-13247
新款	-13248
流的	-13249
都市	-13250
金沙	-13251
▁包括	-13252
▁吃饭	-13253
价格在	-13254
成这样	-13255
把我的	-13256
的空间	-13257
红烧的	-13258
这几个	-13259
▁还点了	-13260
比较失望	-13261
的话还是	-13262
的时候可以	-13263
合影	-13264
大王	-13265
思路	-13266
接口	-13267
整天	-13268
那我	-13269
▁虽说	-13270
一共有	-13271
也确实	-13272
了起来	-13273
都很少	-13274
东西都是	-13275
杏仁豆腐	-13276
自助沙拉	-13277
▁但是味道	-13278
两个人吃了	-13279
喜酒	-13280
石板	-13281
落的	-13282
▁就算	-13283
之前有	-13284
仔细的	-13285
到里面	-13286
看来是	-13287
那个汤	-13288
提前预约	-13289
的我来说	-13290
第一印象	-13291
要说的是	-13292
清的	-13293
港丽	-13294
石榴	-13295
童话	-13296
要排	-13297
较大	-13298
高度	-13299
两个月	-13300
也很棒	-13301
味儿的	-13302
填肚子	-13303
很好奇	-13304
▁只能说	-13305
完全不同	-13306
态度不错	-13307
打了电话	-13308
服务员来	-13309
混在一起	-13310
记不得了	-13311
体力	-13312
利索	-13313
挂在	-13314
方形	-13315
眼球	-13316
超越	-13317
长辈	-13318
我爱吃	-13319
时间了	-13320
打电话去	-13321
的时候有	-13322
也只	-13323
也和	-13324
名片	-13325
吵杂	-13326
就放	-13327
洗衣	-13328
现磨	-13329
肉很	-13330
见仁	-13331
▁主食	-13332
▁选择	-13333
一级棒	-13334
依旧是	-13335
再也没	-13336
写字楼	-13337
又实惠	-13338
我平时	-13339
特色吧	-13340
记得是	-13341
送一个	-13342
非常不	-13343
齐全的	-13344
一次性的	-13345
吃过两次	-13346
换了一个	-13347
的巧克力	-13348
▁V	-13349
占据	-13350
客满	-13351
没在	-13352
足浴	-13353
不敢吃	-13354
加了个	-13355
叫我们	-13356
实惠了	-13357
绿茵阁	-13358
的人不多	-13359
还会再去	-13360
也许是因为	-13361
感觉不是很	-13362
服务员过来	-13363
不重	-13364
中路	-13365
只见	-13366
套装	-13367
开头	-13368
正价	-13369
空旷	-13370
粘粘	-13371
糟溜	-13372
▁便宜	-13373
主人公	-13374
吃的好	-13375
应该算	-13376
经常是	-13377
美美的	-13378
老太太	-13379
老鸭粉丝汤	-13380
▁冷	-13381
不佳	-13382
商圈	-13383
就让	-13384
床房	-13385
建的	-13386
忠实	-13387
撑死	-13388
洗了	-13389
美人	-13390
▁相比	-13391
东西吃	-13392
太硬了	-13393
很早就	-13394
德克士	-13395
我妈妈	-13396
格里拉	-13397
说起来	-13398
一杯饮料	-13399
不过东西	-13400
朋友点了	-13401
一味	-13402
帽子	-13403
念头	-13404
最赞	-13405
望京	-13406
浏览	-13407
白了	-13408
的主	-13409
静静	-13410
▁配菜	-13411
从来不	-13412
工作的	-13413
当我们	-13414
最好是	-13415
窝窝头	-13416
农家小炒肉	-13417
交给	-13418
在东	-13419
地毯	-13420
大啊	-13421
木鱼	-13422
架势	-13423
田子	-13424
上档次	-13425
创意的	-13426
周黑鸭	-13427
年头了	-13428
的那些	-13429
蛮香的	-13430
记不太	-13431
还好吃	-13432
▁▁▁▁	-13433
一定要吃	-13434
很不方便	-13435
最主要是	-13436
服务员给	-13437
每次都点	-13438
爱理不理的	-13439
牛肉粉丝汤	-13440
便当	-13441
到店	-13442
大赞	-13443
就比	-13444
整条	-13445
是做	-13446
有天	-13447
滑滑	-13448
酥肉	-13449
鱼饼	-13450
鳝糊	-13451
▁稍微	-13452
就顺便	-13453
的点心	-13454
高档的	-13455
什么样的	-13456
肥瘦相间	-13457
质量不错	-13458
干煸四季豆	-13459
不含	-13460
不该	-13461
中环	-13462
又想	-13463
呆了	-13464
太湖	-13465
意味	-13466
质疑	-13467
赶到	-13468
超高	-13469
蹄花	-13470
顶多	-13471
顶级	-13472
饭口	-13473
香椿	-13474
鲜果	-13475
▁还会	-13476
买到了	-13477
了现在	-13478
五道口	-13479
就不太	-13480
漫长的	-13481
环境的	-13482
的一定	-13483
答不理	-13484
▁人不多	-13485
值得一去	-13486
挺实惠的	-13487
有的地方	-13488
不是很喜欢吃	-13489
交了	-13490
取的	-13491
命运	-13492
奉劝	-13493
想过	-13494
牛的	-13495
理的	-13496
酥软	-13497
频率	-13498
▁二楼	-13499
了一趟	-13500
打包盒	-13501
挺小的	-13502
田子坊	-13503
蔓越莓	-13504
计较了	-13505
鸡肉卷	-13506
下次再来	-13507
别人请客	-13508
小时营业	-13509
玩的时候	-13510
肉质很嫩	-13511
关心	-13512
切了	-13513
四处	-13514
头脑	-13515
捧场	-13516
极为	-13517
深海	-13518
盘的	-13519
线的	-13520
肉菜	-13521
選擇	-13522
间店	-13523
可以放	-13524
我只是	-13525
手撕鸡	-13526
梭边鱼	-13527
NICE	-13528
也不算贵	-13529
孜然羊肉	-13530
拿出来的	-13531
虽然不大	-13532
都是自己	-13533
闹中取静	-13534
一个多小时	-13535
觉得很好吃	-13536
刚开业的时候	-13537
▁够	-13538
▁心	-13539
仪式	-13540
挂了	-13541
推崇	-13542
炒蟹	-13543
熬的	-13544
發現	-13545
ina	-13546
▁几个	-13547
也不如	-13548
寿司的	-13549
爱不释	-13550
真的蛮	-13551
蒸凤爪	-13552
还是算	-13553
▁没有什么	-13554
我们点的是	-13555
OD	-13556
中海	-13557
事物	-13558
二个	-13559
出一	-13560
太腻	-13561
奶精	-13562
浓浓	-13563
清了	-13564
稍贵	-13565
肩颈	-13566
配以	-13567
雅的	-13568
est	-13569
▁我家	-13570
也不见	-13571
在香港	-13572
奶黄包	-13573
开始吃	-13574
logo	-13575
▁亚马逊	-13576
胡萝卜丝	-13577
十块	-13578
小桌	-13579
带领	-13580
才去	-13581
提起	-13582
是对	-13583
朝天	-13584
格子	-13585
组成	-13586
趋势	-13587
除外	-13588
▁下班	-13589
▁关于	-13590
不感冒	-13591
和咖啡	-13592
美食的	-13593
还一直	-13594
和巧克力	-13595
效果不错	-13596
昨天晚上	-13597
里面只有	-13598
的一家小店	-13599
二的	-13600
名副	-13601
换过	-13602
明年	-13603
热心	-13604
爬山	-13605
端午	-13606
▁肥牛	-13607
下载了	-13608
加一个	-13609
大冬天	-13610
就是没	-13611
很认真	-13612
是这样	-13613
泡菜汤	-13614
环境么	-13615
还特别	-13616
送上来	-13617
不太习惯	-13618
味道倒是	-13619
很不起眼	-13620
本来还想	-13621
有一段时间	-13622
味道还可以吧	-13623
发热	-13624
同等	-13625
哪有	-13626
大快	-13627
好呢	-13628
群众	-13629
闲聊	-13630
▁缺点	-13631
▁过年	-13632
不能和	-13633
喜欢喝	-13634
当早饭	-13635
很久的	-13636
挺适合	-13637
我不爱吃	-13638
都不好吃	-13639
挺有意思的	-13640
的味道一般	-13641
oy	-13642
丝袜	-13643
丢了	-13644
养的	-13645
加糖	-13646
唔到	-13647
情景	-13648
海边	-13649
秒杀	-13650
自觉	-13651
诺基	-13652
铺子	-13653
防止	-13654
附赠	-13655
但是要	-13656
当时就	-13657
怎么也	-13658
预定的	-13659
▁不错的	-13660
但是这里	-13661
▁里面还有	-13662
味道也还不错	-13663
▁另	-13664
上瘾	-13665
天桥	-13666
好咸	-13667
怎麼	-13668
慎重	-13669
我爸	-13670
机身	-13671
正门	-13672
没动	-13673
疯了	-13674
菜啊	-13675
钟意	-13676
包装盒	-13677
发现有	-13678
怎么做	-13679
洗发水	-13680
这个要	-13681
都不行	-13682
鱼片粥	-13683
▁团购的	-13684
一起吃的	-13685
以前吃的	-13686
结果服务员	-13687
om	-13688
上说	-13689
不已	-13690
叫号	-13691
吃啥	-13692
沙姜	-13693
粥店	-13694
紫苏	-13695
美术	-13696
而去	-13697
out	-13698
喝多了	-13699
奶油的	-13700
方便了	-13701
海鲜饼	-13702
还会有	-13703
外脆里嫩	-13704
搞笑的是	-13705
现在还有	-13706
给人感觉	-13707
叫她	-13708
是把	-13709
生硬	-13710
的大爱	-13711
老公的	-13712
被安排	-13713
都不贵	-13714
鸭下巴	-13715
人均消费	-13716
搞不清楚	-13717
梅菜扣肉	-13718
点了好多	-13719
话说回来	-13720
那种感觉	-13721
出彩的地方	-13722
不全	-13723
参差	-13724
头疼	-13725
才对	-13726
是给	-13727
还卖	-13728
▁个么	-13729
▁我对	-13730
▁肯定	-13731
为了吃	-13732
或许是	-13733
的手艺	-13734
还看到	-13735
不过他家	-13736
怎么这么	-13737
麻辣诱惑	-13738
▁地理位置	-13739
就是普通的	-13740
也才	-13741
偏少	-13742
利浦	-13743
到极	-13744
南门	-13745
变形	-13746
四星	-13747
子鱼	-13748
扫兴	-13749
没喝	-13750
钟情	-13751
ill	-13752
后来的	-13753
玫瑰花	-13754
过之后	-13755
▁所以就	-13756
去的那天	-13757
已经开始	-13758
都是这样	-13759
不光	-13760
全套	-13761
几分	-13762
恰好	-13763
生生	-13764
碗饭	-13765
红糖	-13766
预期	-13767
▁忘了	-13768
买衣服	-13769
大量的	-13770
很耐心	-13771
排队买	-13772
服务和	-13773
没意思	-13774
洗面奶	-13775
诺基亚	-13776
马路上	-13777
▁本来想	-13778
一个人的	-13779
自己在家	-13780
黑乎乎的	-13781
也挺不错的	-13782
▁转	-13783
和虾	-13784
开背	-13785
走出	-13786
还来	-13787
醉虾	-13788
一碗汤	-13789
加一份	-13790
就闻到	-13791
的人多	-13792
锅里的	-13793
坐在里面	-13794
很有嚼头	-13795
就是服务员	-13796
▁粉	-13797
一类	-13798
吃食	-13799
小酒	-13800
很饿	-13801
手术	-13802
木的	-13803
点解	-13804
筒子	-13805
肠子	-13806
口味重	-13807
烤牛舌	-13808
眼花缭	-13809
能吃出	-13810
黄牛肉	-13811
但是由于	-13812
真的很大	-13813
▁去过几次	-13814
GA	-13815
TM	-13816
仪器	-13817
打死	-13818
棒骨	-13819
欣喜	-13820
穿上	-13821
而又	-13822
那本	-13823
风吹	-13824
周一到	-13825
团购了	-13826
我承认	-13827
是他们	-13828
郁闷了	-13829
值得一尝	-13830
才想起来	-13831
都吃不完	-13832
黑椒牛仔骨	-13833
▁米	-13834
了他	-13835
來說	-13836
剧场	-13837
反感	-13838
四宝	-13839
密封	-13840
得有	-13841
文的	-13842
是啥	-13843
碰巧	-13844
那你	-13845
预计	-13846
了一件	-13847
我是个	-13848
炖的很	-13849
现烤的	-13850
那几个	-13851
一碗米饭	-13852
因为不是	-13853
来这里了	-13854
解决午饭	-13855
还可以接受	-13856
RO	-13857
加分	-13858
发言	-13859
在上	-13860
大桥	-13861
没尝	-13862
鲮鱼	-13863
吓一跳	-13864
干什么	-13865
我相信	-13866
房间的	-13867
新街口	-13868
用心的	-13869
的小孩	-13870
那个叫	-13871
不是因为	-13872
价格也是	-13873
可惜没有	-13874
名副其实	-13875
喜欢这个	-13876
比较舒服	-13877
生意太好	-13878
不过我还是	-13879
一旦	-13880
三百	-13881
主席	-13882
人很	-13883
媒体	-13884
来潮	-13885
源于	-13886
满分	-13887
点去	-13888
然的	-13889
的真	-13890
联想	-13891
表姐	-13892
运用	-13893
迷恋	-13894
邮件	-13895
了还是	-13896
到店里	-13897
太平洋	-13898
就是小	-13899
没人理	-13900
添加了	-13901
绿绿的	-13902
过的去	-13903
难吃啊	-13904
不能错过	-13905
但是真的	-13906
的过程中	-13907
是个不错的选择	-13908
▁今	-13909
园林	-13910
寥寥	-13911
就开	-13912
常吃	-13913
年卡	-13914
循环	-13915
爱心	-13916
篮球	-13917
总之是	-13918
▁很多人	-13919
不是很浓	-13920
以后还是	-13921
来过几次	-13922
来这家店	-13923
比较正宗	-13924
铁板牛肉	-13925
不相	-13926
作的	-13927
圣女	-13928
我给	-13929
打听	-13930
片儿	-13931
门诊	-13932
好多的	-13933
改成了	-13934
的一顿	-13935
茶碗蒸	-13936
中式快餐	-13937
我家附近	-13938
目前为止	-13939
▁還	-13940
在西	-13941
无几	-13942
美极	-13943
醋鱼	-13944
▁楼上	-13945
但是这	-13946
飞利浦	-13947
也不例外	-13948
实在一般	-13949
有些失望	-13950
菜的价格	-13951
az	-13952
两根	-13953
塑封	-13954
好坏	-13955
弄好	-13956
恋爱	-13957
烫了	-13958
花卷	-13959
超出	-13960
速冻	-13961
也很鲜	-13962
保留了	-13963
因为离	-13964
是一道	-13965
环境比	-13966
的各种	-13967
的小食	-13968
红豆的	-13969
肉很多	-13970
一起吃饭	-13971
好长时间	-13972
很好很好	-13973
特点就是	-13974
难以下咽	-13975
他家的招牌	-13976
HM	-13977
一头	-13978
不热	-13979
发酵	-13980
坐得	-13981
携带	-13982
教程	-13983
洗的	-13984
老爷	-13985
蟹棒	-13986
赤豆	-13987
顺德	-13988
鼓励	-13989
▁点心	-13990
▁鸡蛋	-13991
一个很	-13992
也很小	-13993
咸咸的	-13994
现在在	-13995
西葫芦	-13996
▁如果是	-13997
上下两层	-13998
的味道和	-13999
价钱一分货	-14000
但是里面的	-14001
一日	-14002
住过	-14003
剩的	-14004
加料	-14005
好正	-14006
开朗	-14007
的差	-14008
装帧	-14009
输入	-14010
了哈哈	-14011
打完折	-14012
电视上	-14013
解解馋	-14014
一家三口	-14015
去了之后	-14016
开放式的	-14017
放在一起	-14018
牛肉火锅	-14019
还真的是	-14020
选择这里	-14021
铁板茄子	-14022
黑椒牛排	-14023
一点都没有	-14024
咀嚼	-14025
尝个	-14026
确是	-14027
绘画	-14028
胃王	-14029
零零	-14030
黄河	-14031
▁玉米	-14032
大学城	-14033
好吃呀	-14034
好点的	-14035
孩子们	-14036
实在在	-14037
拍黄瓜	-14038
每个月	-14039
河虾仁	-14040
▁差不多	-14041
根本就是	-14042
特特特特	-14043
买得	-14044
交易	-14045
其名	-14046
单价	-14047
去去	-14048
品位	-14049
实说	-14050
害我	-14051
明珠	-14052
盘鸡	-14053
绿叶	-14054
选片	-14055
遭遇	-14056
都做	-14057
uff	-14058
▁大厅	-14059
▁生菜	-14060
就记得	-14061
觉得没有	-14062
上传	-14063
也差	-14064
人和	-14065
体积	-14066
假货	-14067
是的	-14068
特好	-14069
私家	-14070
米粥	-14071
绿化	-14072
脏乱	-14073
补上	-14074
货架	-14075
▁卖相	-14076
▁特意	-14077
又不会	-14078
回去的	-14079
多春鱼	-14080
就好像	-14081
怎么看	-14082
手抓饼	-14083
永远是	-14084
▁金枪鱼	-14085
但是对于	-14086
品种不多	-14087
挺好喝的	-14088
有点油腻	-14089
比较满意	-14090
就一般般了	-14091
印象最深的就是	-14092
好远	-14093
小馆	-14094
收入	-14095
汁和	-14096
浦路	-14097
量多	-14098
▁难得	-14099
一直想	-14100
一边是	-14101
买了点	-14102
吃出来	-14103
味道上	-14104
太重了	-14105
有印象	-14106
有点厚	-14107
让我对	-14108
说好吃	-14109
需要的	-14110
啊啊啊啊	-14111
点多到的	-14112
▁晕	-14113
国的	-14114
手表	-14115
一方面	-14116
上班的	-14117
不下了	-14118
不下来	-14119
不论是	-14120
土鸡汤	-14121
干净了	-14122
总是会	-14123
现在又	-14124
菌菇汤	-14125
▁不推荐	-14126
▁之前在	-14127
▁里面是	-14128
受欢迎的	-14129
要么就是	-14130
红烧牛肉面	-14131
ge	-14132
公寓	-14133
喜庆	-14134
好过	-14135
干果	-14136
思议	-14137
有很	-14138
杯水	-14139
此处	-14140
耳其	-14141
节省	-14142
鲁菜	-14143
可以当	-14144
吃的我	-14145
回家后	-14146
圣女果	-14147
暗暗的	-14148
期望值	-14149
一定要点	-14150
味道如何	-14151
味道很鲜	-14152
外酥里嫩	-14153
尤其喜欢	-14154
他会	-14155
凉爽	-14156
发表	-14157
干炸	-14158
有幸	-14159
裙子	-14160
起酥	-14161
这不	-14162
量小	-14163
▁刺身	-14164
▁烧烤	-14165
土耳其	-14166
来吃去	-14167
臊子面	-14168
要是能	-14169
走人了	-14170
▁五花肉	-14171
去这家店	-14172
土豆色拉	-14173
是这样的	-14174
更多的是	-14175
正好看到	-14176
看起来很	-14177
差差差差差差差差	-14178
原装	-14179
垂涎	-14180
招商	-14181
明智	-14182
最後	-14183
油里	-14184
沾酱	-14185
煮熟	-14186
试着	-14187
迎接	-14188
骚味	-14189
▁大学	-14190
▁酒店	-14191
医院的	-14192
吃烧烤	-14193
我选了	-14194
让自己	-14195
上来一看	-14196
并不是很	-14197
果然不错	-14198
火候掌握	-14199
还有不少	-14200
都很精致	-14201
周末的时候	-14202
三年	-14203
了还	-14204
亚洲	-14205
偶是	-14206
合计	-14207
咬开	-14208
块儿	-14209
宁路	-14210
既有	-14211
最可	-14212
累的	-14213
街道	-14214
▁老爸	-14215
一直有	-14216
两三个	-14217
很大气	-14218
我买的	-14219
普通了	-14220
特好吃	-14221
送来的	-14222
麻豆腐	-14223
不是什么	-14224
也有一家	-14225
就是地方	-14226
心血来潮	-14227
真是让人	-14228
还蛮大的	-14229
都是一些	-14230
里面的小	-14231
从来没吃过	-14232
亲眼	-14233
利益	-14234
前来	-14235
妹子	-14236
茶杯	-14237
鸭梨	-14238
坐下了	-14239
夏天的	-14240
小饭店	-14241
最适合	-14242
每家店	-14243
不能吃辣	-14244
很久很久	-14245
挺便宜的	-14246
这个也是	-14247
服务员推荐	-14248
迫不及待的	-14249
▁服务员态度	-14250
借口	-14251
撒尿	-14252
良心	-14253
虎皮	-14254
赞啊	-14255
随叫	-14256
中午饭	-14257
元一盘	-14258
吃腻了	-14259
售货员	-14260
就这个	-14261
得要死	-14262
结束后	-14263
送的小菜	-14264
就是一般的	-14265
服务态度也很好	-14266
▁k	-14267
主营	-14268
保健	-14269
几颗	-14270
宁可	-14271
小伙	-14272
录音	-14273
必备	-14274
拉肠	-14275
放映	-14276
看去	-14277
象拔	-14278
退款	-14279
ait	-14280
他们在	-14281
回来后	-14282
比上海	-14283
非常少	-14284
放在一个	-14285
有点奇怪	-14286
物超所值	-14287
到这个地方	-14288
看到很多人	-14289
读书的时候	-14290
附近的居民	-14291
做菜	-14292
可丽	-14293
奇妙	-14294
很挤	-14295
我更	-14296
我那	-14297
推广	-14298
教训	-14299
极力	-14300
油啊	-14301
纸杯	-14302
要想	-14303
调羹	-14304
面点	-14305
商场里	-14306
因为太	-14307
提供了	-14308
真是很	-14309
羊肉和	-14310
都是要	-14311
▁也许是	-14312
休息一下	-14313
味道还算	-14314
好的地方	-14315
每次经过	-14316
眼前一亮	-14317
的是他家的	-14318
第一次去吃	-14319
▁j	-14320
不看	-14321
书本	-14322
们都	-14323
我再	-14324
衣草	-14325
雪山	-14326
三鲜的	-14327
上面铺	-14328
咬上去	-14329
已经快	-14330
怀疑是	-14331
赶上了	-14332
铜锣烧	-14333
性价比比较高	-14334
买家	-14335
偏好	-14336
先前	-14337
烤全	-14338
药材	-14339
观念	-14340
讲了	-14341
读了	-14342
鸭胗	-14343
加热的	-14344
张照片	-14345
或者说	-14346
羽绒服	-14347
▁貌似是	-14348
价格还是	-14349
还有两个	-14350
觉得还可以	-14351
越来越多了	-14352
仙踪	-14353
平台	-14354
很稀	-14355
方案	-14356
照的	-14357
▁食物	-14358
了一样	-14359
吃的饭	-14360
不过好在	-14361
但是吃起来	-14362
有最低消费	-14363
非常的好吃	-14364
----------	-14365
▁六	-14366
出汗	-14367
散热	-14368
杂乱	-14369
肉也	-14370
虾饼	-14371
遇上	-14372
也不高	-14373
冬天吃	-14374
很多年	-14375
有点挤	-14376
用一个	-14377
的书籍	-14378
的菜了	-14379
的话说	-14380
那么小	-14381
▁四个人	-14382
就出来了	-14383
里面的菜	-14384
味道差不多	-14385
一桶	-14386
就多	-14387
开封	-14388
我心	-14389
甚是	-14390
绝了	-14391
都和	-14392
醇香	-14393
长龙	-14394
雕塑	-14395
几家店	-14396
包子的	-14397
地下的	-14398
开了家	-14399
拿了个	-14400
的水准	-14401
说这是	-14402
不过如果	-14403
卫生状况	-14404
办了会员卡	-14405
那么一点点	-14406
▁得	-14407
保鲜	-14408
刻意	-14409
又硬	-14410
只想	-14411
各家	-14412
圆形	-14413
推车	-14414
断了	-14415
无关	-14416
生动	-14417
▁看完	-14418
就是肉	-14419
抹茶味	-14420
更像是	-14421
都不算	-14422
长大的	-14423
随叫随	-14424
▁也可以	-14425
一致认为	-14426
喜欢喜欢	-14427
性价比不错	-14428
东门	-14429
五一	-14430
办张	-14431
四海	-14432
堂的	-14433
套房	-14434
性质	-14435
找来	-14436
教的	-14437
舒畅	-14438
西装	-14439
鲑鱼	-14440
▁特地	-14441
什么鱼	-14442
好吃哦	-14443
好找的	-14444
安排了	-14445
开心了	-14446
感觉没	-14447
拿到了	-14448
根本不	-14449
比较长	-14450
的清香	-14451
范围内	-14452
每个人都	-14453
然后我们	-14454
竟然还有	-14455
质量很好	-14456
味道非常好	-14457
还是可以接受的	-14458
JJ	-14459
也叫	-14460
哇塞	-14461
夹了	-14462
当着	-14463
支付	-14464
敢吃	-14465
泥鳅	-14466
烟雾	-14467
甜口	-14468
白眼	-14469
考察	-14470
记性	-14471
说她	-14472
还未	-14473
▁披萨	-14474
再就是	-14475
口味和	-14476
同行的	-14477
失败的	-14478
歇歇脚	-14479
神奇的	-14480
mini	-14481
实实在在	-14482
选了一个	-14483
▁比较喜欢	-14484
还挺不错的	-14485
可颂	-14486
无疑	-14487
早去	-14488
江边	-14489
浓缩	-14490
繁多	-14491
▁特色	-14492
▁要不	-14493
不说了	-14494
吃烤肉	-14495
幼儿园	-14496
来北京	-14497
点套餐	-14498
空荡荡	-14499
肯定的	-14500
还好啦	-14501
郁闷啊	-14502
本来想吃	-14503
清蒸鲈鱼	-14504
蛮干净的	-14505
两面	-14506
五彩	-14507
作业	-14508
冰火	-14509
官方	-14510
客厅	-14511
带皮	-14512
汤都	-14513
浇汁	-14514
罪过	-14515
见智	-14516
▁is	-14517
▁很少	-14518
▁酱汁	-14519
巷子里	-14520
开业的	-14521
换衣服	-14522
砂锅粥	-14523
郁闷的	-14524
就选择了	-14525
剪得	-14526
发烧	-14527
总能	-14528
来玩	-14529
糍粑	-14530
题目	-14531
▁学校	-14532
▁拿到	-14533
便利店	-14534
和几个	-14535
寿喜锅	-14536
排队等	-14537
整个人	-14538
最差的	-14539
服务员把	-14540
结果就是	-14541
觉得这里	-14542
就不好吃了	-14543
随便吃吃吧	-14544
TT	-14545
一扫	-14546
冷藏	-14547
复习	-14548
白果	-14549
给上	-14550
開始	-14551
限时	-14552
ick	-14553
▁一盘	-14554
东西是	-14555
只要你	-14556
因为它	-14557
好吃点	-14558
挑剔的	-14559
海鲜粥	-14560
到了晚上	-14561
可不可以	-14562
啊之类的	-14563
都没有的	-14564
味道都很好	-14565
才发现原来	-14566
,_	-14567
又咸	-14568
太淡	-14569
灰尘	-14570
特惠	-14571
砂糖	-14572
给予	-14573
费的	-14574
▁的确	-14575
一点了	-14576
中餐厅	-14577
他家有	-14578
伤不起	-14579
但价格	-14580
吃惯了	-14581
最重要	-14582
目的地	-14583
绿豆汤	-14584
让客人	-14585
过几天	-14586
ffee	-14587
很大一个	-14588
所有的菜	-14589
这样的环境	-14590
鸭血粉丝汤	-14591
牛肝	-14592
稍等	-14593
门头	-14594
▁简直	-14595
再来的	-14596
呵呵呵	-14597
夹杂着	-14598
很齐全	-14599
星期五	-14600
比较辣	-14601
的不是	-14602
红宝石	-14603
静安寺	-14604
▁有点像	-14605
我的要求	-14606
等等等等	-14607
▁非常喜欢	-14608
吃的很开心	-14609
别有一番风味	-14610
味道中规中矩	-14611
味道真的不错	-14612
三只	-14613
冰凉	-14614
处处	-14615
太热	-14616
定制	-14617
店子	-14618
新年	-14619
没话	-14620
清澈	-14621
温州	-14622
花蟹	-14623
观赏	-14624
陆家	-14625
▁吃到	-14626
▁很早	-14627
于是又	-14628
他们会	-14629
屋子里	-14630
很推荐	-14631
是热的	-14632
来吃了	-14633
点半份	-14634
的氛围	-14635
都不好	-14636
块钱一份	-14637
服务意识	-14638
服务员说是	-14639
三亚	-14640
叫啥	-14641
梅酒	-14642
点得	-14643
焖面	-14644
相声	-14645
苦菊	-14646
调配	-14647
那只	-14648
随处	-14649
afe	-14650
▁这本	-14651
上菜慢	-14652
不多了	-14653
口感上	-14654
喝一口	-14655
宣传单	-14656
已久的	-14657
当然了	-14658
我还真	-14659
不容易啊	-14660
汤很好喝	-14661
的东西都	-14662
真的很多	-14663
这里没有	-14664
大众点评网	-14665
LL	-14666
~·	-14667
一台	-14668
冤枉	-14669
动力	-14670
取了	-14671
司仪	-14672
喧嚣	-14673
嘱咐	-14674
媲美	-14675
暖气	-14676
甘蔗	-14677
生吃	-14678
由此	-14679
穿梭	-14680
络绎	-14681
蟹腿	-14682
age	-14683
▁番茄	-14684
不要吃	-14685
俱乐部	-14686
区别的	-14687
和别的	-14688
炒腊肉	-14689
的很多	-14690
私房菜	-14691
还是我	-14692
口感一般	-14693
吃的都是	-14694
想吃什么	-14695
我的大爱	-14696
▁不得不说	-14697
-----------	-14698
AD	-14699
冬季	-14700
展现	-14701
工业	-14702
很烫	-14703
炖鸡	-14704
肥厚	-14705
花甲	-14706
蒸笼	-14707
鹿港	-14708
鼎沸	-14709
不动了	-14710
人超多	-14711
价目表	-14712
南方人	-14713
尝试的	-14714
很嫩的	-14715
挺高的	-14716
read	-14717
味道非常	-14718
支持支持	-14719
服务方面	-14720
爱答不理	-14721
真的没有	-14722
要好很多	-14723
都不错的	-14724
以后再也不	-14725
也不知道是不是	-14726
一团	-14727
内景	-14728
南昌	-14729
大帝	-14730
山顶	-14731
无糖	-14732
明信	-14733
聊着	-14734
联华	-14735
马克	-14736
USB	-14737
么想到	-14738
去的早	-14739
在这种	-14740
奇异果	-14741
开的店	-14742
静静的	-14743
麻麻的	-14744
▁和同学	-14745
二十分钟	-14746
卫生条件	-14747
感受一下	-14748
挺舒服的	-14749
不过说实话	-14750
味道蛮好的	-14751
莫名其妙的	-14752
跟服务员说	-14753
还算是比较	-14754
名为	-14755
惭愧	-14756
沙锅	-14757
焖肉	-14758
蛋汤	-14759
露出	-14760
▁茄子	-14761
不过量	-14762
便宜些	-14763
有免费	-14764
清汤锅	-14765
直接去	-14766
老顾客	-14767
详细的	-14768
说不定	-14769
个头不大	-14770
所以也就	-14771
看上去很	-14772
是最好吃的	-14773
丰收	-14774
冷淡	-14775
和的	-14776
烤物	-14777
视线	-14778
调制	-14779
趴趴	-14780
香嫩	-14781
▁总结	-14782
▁种类	-14783
上写着	-14784
什么是	-14785
和老婆	-14786
大老远	-14787
有些不	-14788
牛腩粉	-14789
还经常	-14790
香港人	-14791
总而言之	-14792
椒盐排条	-14793
除此之外	-14794
▁一点都不	-14795
中包	-14796
之作	-14797
书架	-14798
从没	-14799
再上	-14800
四合	-14801
排名	-14802
清脆	-14803
祝福	-14804
这就	-14805
风干	-14806
馋了	-14807
end	-14808
▁收到	-14809
有点高	-14810
的一位	-14811
走的是	-14812
我们一共	-14813
这个样子	-14814
ME	-14815
▁八	-14816
做事	-14817
冰冻	-14818
化学	-14819
碳酸	-14820
策划	-14821
绕着	-14822
达人	-14823
间距	-14824
韩餐	-14825
▁第四	-14826
也不差	-14827
冰咖啡	-14828
冷掉了	-14829
火锅了	-14830
版本的	-14831
皮皮虾	-14832
见过的	-14833
说了句	-14834
还要等	-14835
也就一般	-14836
到这家店	-14837
水果色拉	-14838
▁俺	-14839
便饭	-14840
偏向	-14841
刚出	-14842
对此	-14843
山上	-14844
政策	-14845
没的	-14846
甘蓝	-14847
畅销	-14848
脊骨	-14849
落了	-14850
贝尔	-14851
远离	-14852
长长	-14853
隔天	-14854
马拉	-14855
▁吃得	-14856
▁接着	-14857
▁红烧	-14858
▁门面	-14859
一条鱼	-14860
件衣服	-14861
价格的	-14862
啦啦啦	-14863
尝尝鲜	-14864
炸的很	-14865
而且不	-14866
试了下	-14867
一般都会	-14868
要了一碗	-14869
的时候觉得	-14870
一上	-14871
三片	-14872
地位	-14873
大鱼	-14874
姿势	-14875
排号	-14876
本质	-14877
港币	-14878
真诚	-14879
▁带着	-14880
也挺多	-14881
奶茶和	-14882
晚上来	-14883
汤汤水	-14884
那么高	-14885
不能接受	-14886
有会员卡	-14887
的小点心	-14888
蛮新鲜的	-14889
下次一定要	-14890
不太喜欢吃	-14891
的感觉就是	-14892
一分钱一分货	-14893
MO	-14894
一齐	-14895
万一	-14896
不变	-14897
住院	-14898
内有	-14899
卸妆	-14900
小路	-14901
岁月	-14902
我却	-14903
搞了	-14904
无骨	-14905
烤了	-14906
端来	-14907
薄了	-14908
货色	-14909
辆车	-14910
面面	-14911
不要去	-14912
个冷菜	-14913
之后又	-14914
以后去	-14915
价格么	-14916
冷冷清	-14917
好几家	-14918
惊艳的	-14919
有些菜	-14920
的价位	-14921
豌豆黄	-14922
一口一个	-14923
个半小时	-14924
完全不是	-14925
我们这些	-14926
重口味的	-14927
一般一般一般一般	-14928
上完	-14929
全书	-14930
抵食	-14931
散了	-14932
是先	-14933
月初	-14934
软嫩	-14935
ant	-14936
ttp	-14937
▁th	-14938
和口味	-14939
咖喱汁	-14940
开心啊	-14941
想找个	-14942
想试试	-14943
我只能	-14944
网站上	-14945
还都是	-14946
去吃吃看	-14947
可以随便	-14948
一茶	-14949
倾向	-14950
已然	-14951
广大	-14952
本子	-14953
豆汁	-14954
刚出炉	-14955
品种多	-14956
比较低	-14957
的造型	-14958
等到了	-14959
读起来	-14960
还有卖	-14961
配菜的	-14962
家的感觉	-14963
对这家店	-14964
有多好吃	-14965
特别的多	-14966
百吃不厌	-14967
也不是特别	-14968
一盅	-14969
亲爱	-14970
停的	-14971
关照	-14972
层层	-14973
木须	-14974
观光	-14975
准备了	-14976
好的话	-14977
心理学	-14978
有一定	-14979
辣味的	-14980
▁人很多	-14981
从外面看	-14982
味道其实	-14983
因为本人	-14984
很特别的	-14985
我觉得一般	-14986
的时候就会	-14987
个字	-14988
信赖	-14989
几页	-14990
商厦	-14991
格式	-14992
盆友	-14993
ark	-14994
一下了	-14995
不够辣	-14996
乌江鱼	-14997
乱糟糟	-14998
如果再	-14999
拿过来	-15000
大打折扣	-15001
尝尝味道	-15002
海鲜炒饭	-15003
麦当劳的	-15004
一罐	-15005
主意	-15006
何时	-15007
没变	-15008
淘到	-15009
看下	-15010
都叫	-15011
都未	-15012
金碧	-15013
难的	-15014
一大杯	-15015
上个月	-15016
下面垫	-15017
从这里	-15018
如果在	-15019
牛排和	-15020
用这个	-15021
但是这家	-15022
没有那种	-15023
一族	-15024
两串	-15025
伯爵	-15026
安门	-15027
宽面	-15028
少量	-15029
舒缓	-15030
道路	-15031
▁过了	-15032
很独特	-15033
的最后	-15034
细腻的	-15035
以前吃过	-15036
干净卫生	-15037
我以为是	-15038
▁前段时间	-15039
▁果	-15040
不愿	-15041
像的	-15042
冒菜	-15043
各大	-15044
年后	-15045
延安	-15046
橡皮	-15047
点些	-15048
秩序	-15049
签到	-15050
▁既然	-15051
▁有人	-15052
商场的	-15053
市面上	-15054
是绝对	-15055
最爱吃	-15056
有些腻	-15057
男孩子	-15058
的话会	-15059
也不容易	-15060
络绎不绝	-15061
还是有的	-15062
无功无过吧	-15063
▁烧	-15064
▁青	-15065
一想	-15066
四十	-15067
夜里	-15068
延续	-15069
智能	-15070
海绵	-15071
爵士	-15072
片片	-15073
笑了	-15074
要做	-15075
近了	-15076
不了了	-15077
个女生	-15078
了一回	-15079
就是这	-15080
弄头发	-15081
很油腻	-15082
椒鱼头	-15083
蛋黄酥	-15084
连锁的	-15085
价格偏贵	-15086
影响口感	-15087
挺好玩的	-15088
相当的好	-15089
说的过去	-15090
越来越差	-15091
那么一点	-15092
两句	-15093
也给	-15094
五点	-15095
厘米	-15096
唱了	-15097
拿号	-15098
比大	-15099
疗程	-15100
罗马	-15101
至极	-15102
转角	-15103
▁选了	-15104
丝毫不	-15105
也不管	-15106
人不少	-15107
吃过饭	-15108
哇哈哈	-15109
墨鱼滑	-15110
大份的	-15111
就成了	-15112
折优惠	-15113
没法吃	-15114
美食街	-15115
蛮贵的	-15116
贵一些	-15117
这年头	-15118
馅儿的	-15119
▁不过我	-15120
也就是说	-15121
因为人多	-15122
比较高的	-15123
都挺好吃的	-15124
高中的时候	-15125
RE	-15126
主料	-15127
嘴唇	-15128
很受	-15129
拉的	-15130
指引	-15131
纽约	-15132
鹅肉	-15133
orz	-15134
世界上	-15135
元以上	-15136
嚼不动	-15137
就上了	-15138
很让人	-15139
星期天	-15140
来上海	-15141
芒果的	-15142
辣椒和	-15143
▁每次都	-15144
与众不同	-15145
和朋友们	-15146
很不耐烦	-15147
松鼠桂鱼	-15148
hocol	-15149
▁服务员说	-15150
他们的服务	-15151
第一次看到	-15152
YY	-15153
一同	-15154
不會	-15155
人挤	-15156
伦哥	-15157
均衡	-15158
太浓	-15159
心头	-15160
我能	-15161
重辣	-15162
顺带	-15163
饿得	-15164
▁没啥	-15165
产品的	-15166
准备去	-15167
刚出炉的	-15168
巴黎春天	-15169
老板是个	-15170
能吃辣的	-15171
自助餐厅	-15172
蜜汁叉烧	-15173
还不是很	-15174
就是在这里	-15175
让我想起了	-15176
了在	-15177
入到	-15178
全球	-15179
坐定	-15180
小强	-15181
校区	-15182
的三	-15183
还差	-15184
香醇	-15185
人好多	-15186
在日本	-15187
太腻了	-15188
油豆皮	-15189
清楚的	-15190
的人均	-15191
食堂了	-15192
over	-15193
▁朋友说	-15194
下次还要	-15195
也一般般	-15196
买了两个	-15197
办了一张	-15198
吃点东西	-15199
是我最喜欢的	-15200
几本	-15201
喝个	-15202
四方	-15203
排毒	-15204
斤半	-15205
街客	-15206
▁菜式	-15207
不住了	-15208
对这里	-15209
小桌子	-15210
慢慢吃	-15211
明显比	-15212
生鸡蛋	-15213
蔬菜汤	-15214
薰衣草	-15215
象拔蚌	-15216
这是个	-15217
都吃过	-15218
▁好吃的	-15219
不太舒服	-15220
都挺好的	-15221
黑巧克力	-15222
▁挺好吃的	-15223
回来的时候	-15224
▁出	-15225
▁贵	-15226
上餐	-15227
交涉	-15228
他了	-15229
伊面	-15230
夫妇	-15231
如意	-15232
杭帮	-15233
特多	-15234
男装	-15235
立体	-15236
简易	-15237
精髓	-15238
翻新	-15239
肉燥	-15240
赞赞	-15241
鱼类	-15242
▁包房	-15243
不要太	-15244
块一份	-15245
墨鱼仔	-15246
总体上	-15247
时发现	-15248
炸鸡块	-15249
点好了	-15250
烤面包	-15251
的了解	-15252
的大叔	-15253
确实有	-15254
铁板上	-15255
鱿鱼圈	-15256
不过对于	-15257
吃的地方	-15258
点餐的时候	-15259
还会再去的	-15260
没什么好吃的	-15261
先后	-15262
去哪	-15263
琳琅	-15264
結果	-15265
误撞	-15266
走向	-15267
供应的	-15268
华丽的	-15269
古老肉	-15270
商家的	-15271
小东西	-15272
排长队	-15273
文化的	-15274
比较甜	-15275
电视里	-15276
的话是	-15277
老阿姨	-15278
还喜欢	-15279
▁有机会	-15280
也很丰富	-15281
咬了一口	-15282
所以只能	-15283
烤羊肉串	-15284
蒸出来的	-15285
进去一看	-15286
香格里拉	-15287
还是很满意的	-15288
一再	-15289
一千	-15290
几多	-15291
快钱	-15292
撤了	-15293
最新	-15294
玉兰	-15295
粟米	-15296
菜码	-15297
西亚	-15298
▁小小	-15299
吃自助	-15300
后来还	-15301
套衣服	-15302
日月光	-15303
炒粉丝	-15304
直接把	-15305
味道真是	-15306
NE	-15307
RP	-15308
也罢	-15309
倒茶	-15310
充斥	-15311
光灯	-15312
戴着	-15313
手了	-15314
灯火	-15315
的光	-15316
肥了	-15317
附送	-15318
rmb	-15319
不咋样	-15320
但这个	-15321
就不好	-15322
是冷的	-15323
的作用	-15324
的是个	-15325
的标准	-15326
就是冲着	-15327
▁朋友请客	-15328
▁环境一般	-15329
不是很好找	-15330
还是很不错	-15331
服务员的服务	-15332
▁越	-15333
人往	-15334
咬劲	-15335
愿望	-15336
抵扣	-15337
摊子	-15338
放大	-15339
欺负	-15340
穴位	-15341
辛辣	-15342
阵阵	-15343
ers	-15344
上桌了	-15345
写点评	-15346
到这个	-15347
厉害的	-15348
时间段	-15349
比较远	-15350
的搭配	-15351
的组合	-15352
的菜量	-15353
还算好	-15354
那天去	-15355
黄豆芽	-15356
我只能说	-15357
根本就没	-15358
桌子上的	-15359
比较普通	-15360
烤银鳕鱼	-15361
看不出来	-15362
看了半天	-15363
突然想吃	-15364
酱的味道	-15365
不饿	-15366
中奖	-15367
仓库	-15368
八九	-15369
名人	-15370
很合	-15371
指着	-15372
朴素	-15373
误导	-15374
集合	-15375
▁汤头	-15376
不了解	-15377
价格很	-15378
但是没	-15379
但现在	-15380
在杭州	-15381
店里有	-15382
很快的	-15383
最好了	-15384
糯米饭	-15385
给孩子	-15386
▁在网上	-15387
麻酱小料	-15388
烟熏三文鱼	-15389
这样的地方	-15390
▁九	-15391
优美	-15392
借鉴	-15393
又被	-15394
增添	-15395
对象	-15396
就找	-15397
涂鸦	-15398
相较	-15399
美妙	-15400
芽菜	-15401
选一	-15402
ish	-15403
▁她说	-15404
买回家	-15405
名字叫	-15406
我忘了	-15407
是一大	-15408
比较厚	-15409
的回忆	-15410
竟然说	-15411
经过了	-15412
很有情调	-15413
时不时的	-15414
有很大的	-15415
比较精致	-15416
▁这家店是	-15417
一代	-15418
又很	-15419
喝得	-15420
孕妇	-15421
市口	-15422
烦恼	-15423
眼里	-15424
背面	-15425
菜肉	-15426
调理	-15427
重头	-15428
野菌	-15429
不咋滴	-15430
买面包	-15431
大理石	-15432
的工作	-15433
饭店了	-15434
在我看来	-15435
快递公司	-15436
感觉环境	-15437
栗子蛋糕	-15438
VE	-15439
▁羊	-15440
为数	-15441
乌鸡	-15442
右转	-15443
汤也	-15444
答曰	-15445
粉和	-15446
要找	-15447
误打	-15448
麻团	-15449
▁不好	-15450
▁明明	-15451
二十几	-15452
只能算	-15453
成为了	-15454
油面筋	-15455
点菜了	-15456
的说法	-15457
吃不下去	-15458
▁团购去的	-15459
感觉很一般	-15460
介于	-15461
到你	-15462
告之	-15463
就剩	-15464
工商	-15465
拿下	-15466
捧着	-15467
枯燥	-15468
谈了	-15469
较好	-15470
钓鱼	-15471
香槟	-15472
ong	-15473
一看就	-15474
了点儿	-15475
这方面	-15476
遇到了	-15477
香辣的	-15478
很受欢迎	-15479
记得当时	-15480
都没有什么	-15481
里面的内容	-15482
书城	-15483
互动	-15484
反胃	-15485
器材	-15486
场了	-15487
带她	-15488
很腥	-15489
水面	-15490
狭窄	-15491
虾皮	-15492
见底	-15493
都像	-15494
人一多	-15495
再加点	-15496
吃撑了	-15497
所以不	-15498
本书的	-15499
的很少	-15500
让顾客	-15501
▁~~~	-15502
上来以后	-15503
味道都很	-15504
强力推荐	-15505
环境也很好	-15506
一站	-15507
一绝	-15508
今次	-15509
冬菇	-15510
此地	-15511
纸盒	-15512
良好	-15513
花雕	-15514
若是	-15515
隔间	-15516
青鱼	-15517
颠覆	-15518
▁优点	-15519
国家的	-15520
小白菜	-15521
就更加	-15522
拿回家	-15523
比较干	-15524
牛肉干	-15525
的人说	-15526
不好吃了	-15527
两碗米饭	-15528
今天终于	-15529
已经过了	-15530
旁边一桌	-15531
有点类似	-15532
的小朋友	-15533
相对而言	-15534
名字忘记了	-15535
,【	-15536
上都	-15537
严谨	-15538
元送	-15539
光吃	-15540
冰水	-15541
同胞	-15542
恐惧	-15543
推门	-15544
短短	-15545
贴了	-15546
赠一	-15547
还配	-15548
陈醋	-15549
▁扇贝	-15550
▁都很	-15551
上的菜	-15552
保质期	-15553
元套餐	-15554
叫了个	-15555
地中海	-15556
多好吃	-15557
大食代	-15558
感觉有	-15559
的分店	-15560
酒店里	-15561
▁水煮鱼	-15562
的时候都	-15563
真的不怎么样	-15564
里面的服务员	-15565
▁英	-15566
不坏	-15567
会送	-15568
偏小	-15569
包心	-15570
回应	-15571
嫩嫩	-15572
椒麻	-15573
▁无奈	-15574
做到了	-15575
印象里	-15576
推荐给	-15577
烤的很	-15578
因为觉得	-15579
差不多吧	-15580
误打误撞	-15581
就是不一样	-15582
au	-15583
好辣	-15584
开花	-15585
心悦	-15586
扶梯	-15587
是由	-15588
有够	-15589
皮厚	-15590
精修	-15591
纯的	-15592
脚的	-15593
部队	-15594
食完	-15595
仅仅是	-15596
消失了	-15597
游泳馆	-15598
▁有点小	-15599
不要发票	-15600
有很多种	-15601
没什么大	-15602
超市买的	-15603
逛街的时候	-15604
里面的配菜	-15605
ee	-15606
两道	-15607
抵抗	-15608
捞面	-15609
有爱	-15610
规律	-15611
评分	-15612
身影	-15613
金的	-15614
▁好大	-15615
先说说	-15616
再后来	-15617
原以为	-15618
可以和	-15619
太厚了	-15620
然后我	-15621
的一盆	-15622
还不能	-15623
这么说	-15624
▁但是我	-15625
吸引我的	-15626
布丁奶茶	-15627
感觉这里	-15628
提醒我们	-15629
西湖醋鱼	-15630
让我想起	-15631
还是挺好吃的	-15632
密密	-15633
对他	-15634
屋顶	-15635
旗袍	-15636
是按	-15637
果茶	-15638
活泼	-15639
烩饭	-15640
爱喝	-15641
粥的	-15642
路程	-15643
鉴定	-15644
香芒	-15645
▁全是	-15646
▁提前	-15647
▁那就	-15648
之后再	-15649
很符合	-15650
拍出来	-15651
是多么	-15652
没时间	-15653
没有去	-15654
油条虾	-15655
直接就	-15656
积分卡	-15657
还不到	-15658
饭店里	-15659
▁很一般	-15660
一个味道	-15661
一直以为	-15662
下课	-15663
久违	-15664
先到	-15665
剪刀	-15666
放题	-15667
流动	-15668
肉味	-15669
面啊	-15670
鸭翅	-15671
像样的	-15672
功不过	-15673
单纯的	-15674
厚实的	-15675
右手边	-15676
和土豆	-15677
开空调	-15678
完全就是	-15679
宽敞明亮	-15680
小杨生煎	-15681
就一个字	-15682
很大一碗	-15683
惊艳的感觉	-15684
不送	-15685
传单	-15686
卖得	-15687
多说	-15688
大海	-15689
泡了	-15690
蛋筒	-15691
一盘子	-15692
不锈钢	-15693
会给你	-15694
在其他	-15695
很舒适	-15696
才吃了	-15697
拍照片	-15698
本来说	-15699
见到了	-15700
超多的	-15701
酥脆的	-15702
什么都没	-15703
吃完以后	-15704
大家都很	-15705
比较容易	-15706
没啥特色	-15707
这家饭店	-15708
一起来这里	-15709
也不知道是	-15710
服务员有点	-15711
感觉还是不错的	-15712
tv	-15713
交大	-15714
加收	-15715
单单	-15716
手切	-15717
拉条	-15718
损坏	-15719
是挺	-15720
煮得	-15721
角色	-15722
试穿	-15723
不熟悉	-15724
但不是	-15725
吃到撑	-15726
正合适	-15727
的消费	-15728
不出什么	-15729
比较好找	-15730
分离	-15731
奶酥	-15732
标题	-15733
棋牌	-15734
烤制	-15735
特级	-15736
终点	-15737
足球	-15738
里吃	-15739
食过	-15740
▁粉丝	-15741
一共是	-15742
上没有	-15743
人套餐	-15744
广东人	-15745
明信片	-15746
牛仔裤	-15747
第一眼	-15748
跟同学	-15749
遇到的	-15750
麻辣锅	-15751
一模一样	-15752
人多的话	-15753
冲出来的	-15754
加了很多	-15755
坐在外面	-15756
晚饭时间	-15757
这种做法	-15758
不明	-15759
事业	-15760
二话	-15761
关机	-15762
和鱼	-15763
唯有	-15764
国人	-15765
孤独	-15766
幻想	-15767
打到	-15768
行程	-15769
视角	-15770
谨慎	-15771
路站	-15772
通话	-15773
颇为	-15774
ony	-15775
也开始	-15776
出版的	-15777
可口的	-15778
干豆腐	-15779
是晚上	-15780
查了下	-15781
点击率	-15782
绵绵的	-15783
非常小	-15784
不过价钱	-15785
倒是不少	-15786
在他们家	-15787
地方很大	-15788
我们学校	-15789
牛肉拉面	-15790
超好吃的	-15791
还有没有	-15792
等了半个小时	-15793
一夹	-15794
原理	-15795
和新	-15796
头晕	-15797
打滚	-15798
桔子	-15799
榛果	-15800
熟人	-15801
的女	-15802
窝窝	-15803
起床	-15804
转到	-15805
通菜	-15806
金桥	-15807
不浪费	-15808
多大的	-15809
差唔多	-15810
比较咸	-15811
比较难	-15812
肉丝面	-15813
花生碎	-15814
装修了	-15815
可爱的小	-15816
的味道都	-15817
种类不多	-15818
这个季节	-15819
里面有一	-15820
但是这里的	-15821
我很喜欢吃	-15822
BS	-15823
下着	-15824
也去	-15825
冲击	-15826
匆忙	-15827
口香	-15828
平方	-15829
急了	-15830
房的	-15831
炖汤	-15832
猪头	-15833
能量	-15834
迎合	-15835
那段	-15836
银泰	-15837
不提供	-15838
失败了	-15839
做了功课	-15840
兰州拉面	-15841
泡椒凤爪	-15842
冬天的时候	-15843
每次去都要	-15844
路过这家店	-15845
上海人的口味	-15846
不欢	-15847
与其	-15848
低脂	-15849
南站	-15850
帘子	-15851
拌着	-15852
撞奶	-15853
歌城	-15854
粉面	-15855
罐子	-15856
也不知	-15857
像我们	-15858
有的是	-15859
气的是	-15860
点了杯	-15861
知道是	-15862
其他都是	-15863
参差不齐	-15864
是可以的	-15865
没有一个	-15866
物价上涨	-15867
▁宏	-15868
一例	-15869
坊的	-15870
天了	-15871
常识	-15872
很稠	-15873
怪的	-15874
灵菇	-15875
躺着	-15876
那叫	-15877
▁一边	-15878
▁包间	-15879
不限量	-15880
家常的	-15881
小牛排	-15882
就好啦	-15883
我同事	-15884
我每次	-15885
有点象	-15886
自己吃	-15887
进去吃	-15888
难得的	-15889
鸡翅和	-15890
不像其他	-15891
块钱一碗	-15892
感觉这个	-15893
还没吃完	-15894
金碧辉煌	-15895
还算不错的	-15896
~~~~~~~~~~	-15897
ne	-15898
▁发	-15899
上还	-15900
主任	-15901
喇叭	-15902
差啊	-15903
很新	-15904
手段	-15905
正比	-15906
深度	-15907
湿的	-15908
老火	-15909
解答	-15910
都放	-15911
配方	-15912
▁所有	-15913
也还是	-15914
小圆子	-15915
才看到	-15916
苹果园	-15917
不像有些	-15918
个人喜欢	-15919
因为这里	-15920
这道菜的	-15921
韭菜盒子	-15922
价格也比较	-15923
▁Y	-15924
万象	-15925
伤害	-15926
凉凉	-15927
制服	-15928
善良	-15929
太低	-15930
当代	-15931
推介	-15932
是蛮	-15933
珍惜	-15934
百万	-15935
皮儿	-15936
花草	-15937
调查	-15938
长城	-15939
闷热	-15940
限于	-15941
饱饱	-15942
our	-15943
▁入口	-15944
什么样	-15945
又可以	-15946
如果说	-15947
点半了	-15948
的一杯	-15949
硕大的	-15950
这样子	-15951
白巧克力	-15952
背景音乐	-15953
里面除了	-15954
值得推荐的	-15955
再也	-15956
刷刷	-15957
前些	-15958
包和	-15959
店在	-15960
彩虹	-15961
换到	-15962
灵魂	-15963
生了	-15964
用于	-15965
真空	-15966
被骗	-15967
食到	-15968
鸡翼	-15969
ard	-15970
int	-15971
ont	-15972
做成的	-15973
后来去	-15974
喝一杯	-15975
喝的是	-15976
大润发	-15977
有的一	-15978
正确的	-15979
韩国的	-15980
黄花鱼	-15981
后来还是	-15982
很大一块	-15983
焦糖玛奇朵	-15984
离家比较近	-15985
一无	-15986
下到	-15987
卡通	-15988
塌塌	-15989
得益	-15990
每张	-15991
禾绿	-15992
装好	-15993
象征	-15994
页的	-15995
高音	-15996
▁尽管	-15997
▁有的	-15998
也一直	-15999
体会到	-16000
可不是	-16001
味很重	-16002
怎样的	-16003
新来的	-16004
每一次	-16005
比较浓	-16006
猪扒饭	-16007
那个大	-16008
▁我还是	-16009
不同的是	-16010
不过这次	-16011
唯一一个	-16012
挺有意思	-16013
是这里的	-16014
解决晚饭	-16015
非常热情	-16016
三环	-16017
买买	-16018
像素	-16019
南锣	-16020
只卖	-16021
应付	-16022
振鼎	-16023
晚点	-16024
混着	-16025
纷纷	-16026
通透	-16027
不合适	-16028
中意的	-16029
也可能	-16030
又开始	-16031
味道更	-16032
她们的	-16033
很少吃	-16034
惊喜的	-16035
有三种	-16036
满大街	-16037
糯米藕	-16038
都有些	-16039
也很便宜	-16040
可以刷卡	-16041
客人不多	-16042
很普通的	-16043
有点腻了	-16044
▁强烈推荐	-16045
的朋友可以	-16046
没有什么特别的	-16047
TY	-16048
VI	-16049
不分	-16050
你在	-16051
冬笋	-16052
妈呀	-16053
我刚	-16054
消耗	-16055
热热	-16056
称的	-16057
脸部	-16058
man	-16059
▁新开	-16060
不到的	-16061
他家了	-16062
如此的	-16063
年前的	-16064
把这个	-16065
护肤品	-16066
给我了	-16067
评论说	-16068
赏心悦	-16069
这一次	-16070
▁有很多	-16071
体验一下	-16072
喜欢这里	-16073
因为他们	-16074
很有创意	-16075
总的感觉	-16076
我觉得比	-16077
效果很好	-16078
没有发票	-16079
胶原蛋白	-16080
这是什么	-16081
不是我的菜	-16082
原汁原味的	-16083
感觉一般般	-16084
生意还不错	-16085
下就	-16086
也更	-16087
仍旧	-16088
他还	-16089
加之	-16090
大伙	-16091
我好	-16092
损失	-16093
撑的	-16094
晕倒	-16095
真得	-16096
簋街	-16097
蟹的	-16098
长江	-16099
sho	-16100
不小的	-16101
可惜啊	-16102
大家说	-16103
开了个	-16104
开始的	-16105
有可能	-16106
的顾客	-16107
而来的	-16108
胃口了	-16109
好吃很多	-16110
属于比较	-16111
老板娘说	-16112
▁好不容易	-16113
为人	-16114
傻了	-16115
品相	-16116
在搞	-16117
堪称	-16118
太软	-16119
对它	-16120
悄悄	-16121
漫步	-16122
瀑布	-16123
牡蛎	-16124
老闆	-16125
耗油	-16126
豪客	-16127
隔开	-16128
领域	-16129
ink	-16130
上一次	-16131
半天才	-16132
和图片	-16133
四合院	-16134
强烈的	-16135
有这个	-16136
比较油	-16137
要提前	-16138
这个人	-16139
午市套餐	-16140
的东西了	-16141
口感还不错	-16142
mo	-16143
一开	-16144
上就	-16145
专用	-16146
乐的	-16147
具备	-16148
味和	-16149
寡淡	-16150
底楼	-16151
怕怕	-16152
新村	-16153
旁的	-16154
生物	-16155
肉少	-16156
顺手	-16157
▁那些	-16158
冰红茶	-16159
台湾的	-16160
往前走	-16161
所以只	-16162
有多么	-16163
牛筋丸	-16164
的有点	-16165
舒服了	-16166
长寿面	-16167
ZARA	-16168
不一样了	-16169
不会去了	-16170
两种口味	-16171
我和妈妈	-16172
所以大家	-16173
来过这里	-16174
点了一盘	-16175
第一时间	-16176
肉质鲜嫩	-16177
还有一家	-16178
会给	-16179
你家	-16180
吵着	-16181
易懂	-16182
晃晃	-16183
比利	-16184
活着	-16185
皇冠	-16186
红绿	-16187
纤维	-16188
肉圆	-16189
脚步	-16190
费了	-16191
退步	-16192
高手	-16193
鱼了	-16194
▁明显	-16195
▁调料	-16196
做的菜	-16197
分钟的	-16198
很重的	-16199
必须的	-16200
木有了	-16201
结果就	-16202
芥末酱	-16203
负责人	-16204
还是多	-16205
去那里吃	-16206
可以根据	-16207
大快朵颐	-16208
装修的很	-16209
西芹百合	-16210
还不如去	-16211
还给我们	-16212
都没怎么	-16213
也很有特色	-16214
根本就没有	-16215
▁环境还不错	-16216
▁且	-16217
二次	-16218
倒入	-16219
分布	-16220
台北	-16221
大福	-16222
干妈	-16223
异国	-16224
敞开	-16225
是人	-16226
盛的	-16227
胡子	-16228
装订	-16229
金汤	-16230
青柠	-16231
也不腻	-16232
好乐迪	-16233
很大个	-16234
很怀念	-16235
身上的	-16236
了一下午	-16237
凯撒大帝	-16238
因为都是	-16239
是很好的	-16240
没有多少	-16241
▁第一次来	-16242
也蛮不错的	-16243
口味还可以	-16244
的时候还是	-16245
还有他家的	-16246
▁cheese	-16247
为之	-16248
今后	-16249
免单	-16250
前门	-16251
尽然	-16252
庄园	-16253
感触	-16254
拍完	-16255
隔夜	-16256
▁关键	-16257
▁幸好	-16258
也会有	-16259
于是在	-16260
北京人	-16261
四川人	-16262
结果我	-16263
自己找	-16264
过多的	-16265
都不到	-16266
http	-16267
买的东西	-16268
太失望了	-16269
没有太多	-16270
味道挺好的	-16271
都不好意思	-16272
的味道还是不错的	-16273
了但	-16274
利于	-16275
度过	-16276
满好	-16277
眉毛	-16278
诸如	-16279
▁灯光	-16280
▁起码	-16281
世界的	-16282
了一本	-16283
休息区	-16284
只能吃	-16285
就很好	-16286
干掉了	-16287
我们有	-16288
是正品	-16289
这名字	-16290
也是一个	-16291
寿司拼盘	-16292
感觉自己	-16293
我就喜欢	-16294
肯德基的	-16295
就不用说了	-16296
人也不是很多	-16297
他们家的东西	-16298
服务态度不错	-16299
伙食	-16300
原著	-16301
吃力	-16302
和善	-16303
字典	-16304
必应	-16305
排挡	-16306
无爱	-16307
王的	-16308
而我	-16309
葱丝	-16310
都跟	-16311
金色	-16312
鸡精	-16313
黄焖	-16314
▁刚好	-16315
▁天气	-16316
不见了	-16317
世博会	-16318
买到的	-16319
很失败	-16320
更何况	-16321
来一份	-16322
的头发	-16323
真的要	-16324
菜品的	-16325
进一步	-16326
迟到了	-16327
于是决定	-16328
打发时间	-16329
眼花缭乱	-16330
runch	-16331
不是特别好	-16332
的一塌糊涂	-16333
▁十	-16334
▁平	-16335
▁近	-16336
停了	-16337
法律	-16338
洗剪	-16339
独自	-16340
给换	-16341
英式	-16342
▁就不	-16343
▁自然	-16344
▁蘑菇	-16345
下一个	-16346
分钟吧	-16347
想吃了	-16348
最关键	-16349
来吃过	-16350
▁因为我	-16351
一个小锅	-16352
也有一些	-16353
印象不深	-16354
真的很棒	-16355
这个就是	-16356
都找不到	-16357
人参	-16358
从我	-16359
冰茶	-16360
大堆	-16361
带劲	-16362
扫荡	-16363
样品	-16364
水上	-16365
缓解	-16366
蟹钳	-16367
饭堂	-16368
cks	-16369
一起炒	-16370
凉拌菜	-16371
块一碗	-16372
是我在	-16373
沙发坐	-16374
温暖的	-16375
上了二楼	-16376
便宜多了	-16377
比较推荐	-16378
特别的好	-16379
但有	-16380
名牌	-16381
好细	-16382
姐夫	-16383
液体	-16384
皮是	-16385
真多	-16386
真有	-16387
踪影	-16388
▁叉烧	-16389
很火爆	-16390
服务差	-16391
的包装	-16392
绿豆饼	-16393
胜一筹	-16394
▁也不错	-16395
▁因为在	-16396
出版社的	-16397
是不可能	-16398
深刻的是	-16399
的时候在	-16400
实属	-16401
机构	-16402
波特	-16403
炸糕	-16404
煎得	-16405
舒坦	-16406
要上	-16407
进味	-16408
▁偶然	-16409
▁心里	-16410
▁送的	-16411
一切都	-16412
分不清	-16413
到我了	-16414
巴黎贝	-16415
显示器	-16416
没吃了	-16417
碰到了	-16418
经常在	-16419
脏脏的	-16420
虽然在	-16421
所以一般	-16422
热气腾腾	-16423
被服务员	-16424
记不住了	-16425
还挺大的	-16426
口味也不错	-16427
只能说一般	-16428
三色	-16429
你去	-16430
内涵	-16431
太干	-16432
把这	-16433
排列	-16434
施工	-16435
盖了	-16436
葱爆	-16437
要小	-16438
贡献	-16439
~~,	-16440
也没吃	-16441
太晚了	-16442
清清爽	-16443
点左个	-16444
琳琅满	-16445
▁红烧肉	-16446
他家还有	-16447
吉野家的	-16448
毕竟不是	-16449
真心不错	-16450
hocolate	-16451
两楼	-16452
卖到	-16453
右手	-16454
和着	-16455
嘟嘟	-16456
好嫩	-16457
巧合	-16458
折磨	-16459
望着	-16460
王道	-16461
绵密	-16462
置身	-16463
还价	-16464
面线	-16465
▁回来	-16466
人家是	-16467
其余的	-16468
港式的	-16469
的一间	-16470
结帐时	-16471
这两天	-16472
强烈建议	-16473
根本就不	-16474
一点也不好吃	-16475
SH	-16476
▁半	-16477
▁据	-16478
上齐	-16479
做为	-16480
就等	-16481
带他	-16482
弄成	-16483
指点	-16484
煮了	-16485
结尾	-16486
行人	-16487
足矣	-16488
醋汁	-16489
▁外观	-16490
乌梅汁	-16491
十足的	-16492
很麻烦	-16493
旁边是	-16494
来一次	-16495
羔羊肉	-16496
舒适的	-16497
▁这家是	-16498
上菜很快	-16499
下次一定	-16500
挺好看的	-16501
不是很舒服	-16502
外婆红烧肉	-16503
特别是那个	-16504
没有什么味道	-16505
ld	-16506
人份	-16507
凝固	-16508
原文	-16509
够呛	-16510
大一	-16511
太难	-16512
尽快	-16513
心啊	-16514
推理	-16515
更高	-16516
灿灿	-16517
烤炉	-16518
苏打	-16519
解析	-16520
▁导致	-16521
▁花生	-16522
一层的	-16523
但是比	-16524
再看看	-16525
喝饮料	-16526
坐电梯	-16527
好几遍	-16528
就在这	-16529
座位上	-16530
着头皮	-16531
请朋友	-16532
豆腐的	-16533
也非常好	-16534
环境服务	-16535
虽然价格	-16536
还真不少	-16537
饿的时候	-16538
想不起来了	-16539
服务员素质	-16540
上菜速度很快	-16541
味道都差不多	-16542
适合商务宴请	-16543
SD	-16544
壶茶	-16545
大吃	-16546
就住	-16547
蛋塔	-16548
衬托	-16549
费力	-16550
醉鸡	-16551
顺滑	-16552
鳜鱼	-16553
一个的	-16554
中间有	-16555
可以有	-16556
外面裹	-16557
大卖场	-16558
广州的	-16559
戴眼镜	-16560
旗下的	-16561
无表情	-16562
最让人	-16563
水晶鸡	-16564
烤土豆	-16565
焦焦的	-16566
牛排的	-16567
的吃法	-16568
绝对不	-16569
▁小小的	-16570
制作过程	-16571
永和豆浆	-16572
第一次在	-16573
而且里面	-16574
菜的品种	-16575
还是一样	-16576
这些都是	-16577
ML	-16578
值班	-16579
公公	-16580
功底	-16581
子鸡	-16582
封闭	-16583
广西	-16584
影楼	-16585
称之	-16586
绝味	-16587
较高	-16588
选好	-16589
黑啤	-16590
▁叫了	-16591
▁外加	-16592
▁速度	-16593
上来时	-16594
不过没	-16595
八宝粥	-16596
单点了	-16597
尝尝看	-16598
最里面	-16599
油腻的	-16600
血糯米	-16601
这几年	-16602
一点就是	-16603
和其他的	-16604
咸淡适中	-16605
在这里买	-16606
提醒大家	-16607
特别之处	-16608
热气腾腾的	-16609
世贸	-16610
乡下	-16611
增肥	-16612
拎着	-16613
春秋	-16614
松散	-16615
格格	-16616
相片	-16617
脏了	-16618
运输	-16619
还比	-16620
页面	-16621
BBQ	-16622
▁即使	-16623
一碗饭	-16624
上齐了	-16625
不用等	-16626
人都是	-16627
味道却	-16628
店面的	-16629
朋友家	-16630
环境吧	-16631
看他们	-16632
这才是	-16633
酱萝卜	-16634
鸡蛋饼	-16635
▁很实惠	-16636
▁赞一个	-16637
下次试试	-16638
人手不够	-16639
凉拌木耳	-16640
几个小时	-16641
结果我们	-16642
非常方便	-16643
不能吃辣的	-16644
吃不下去了	-16645
味道很鲜美	-16646
这么好吃的	-16647
实在不怎么样	-16648
▁文	-16649
▁素	-16650
偏酸	-16651
取得	-16652
味浓	-16653
复兴	-16654
恰当	-16655
提味	-16656
炖菜	-16657
高高	-16658
鲜明	-16659
不要了	-16660
不过了	-16661
味道跟	-16662
摄像头	-16663
的羊肉	-16664
西式的	-16665
这类的	-16666
一个劲的	-16667
很有特点	-16668
是自助的	-16669
鲜嫩多汁	-16670
很一般很一般	-16671
他也	-16672
优衣	-16673
修路	-16674
停止	-16675
内地	-16676
咳嗽	-16677
天空	-16678
字的	-16679
短了	-16680
稍有	-16681
通了	-16682
锅鱼	-16683
▁姐姐	-16684
▁快递	-16685
▁某天	-16686
三楼的	-16687
喝啤酒	-16688
就是那	-16689
我有点	-16690
搞笑的	-16691
然后去	-16692
老油条	-16693
arbu	-16694
去他们家	-16695
好不好吃	-16696
就过去了	-16697
的一个小	-16698
只有一点点	-16699
所以吃起来	-16700
都不怎么样	-16701
▁还是不错的	-16702
我不是很喜欢	-16703
ny	-16704
两件	-16705
兔肉	-16706
切块	-16707
多要	-16708
对应	-16709
搞错	-16710
漂浮	-16711
运费	-16712
里是	-16713
ord	-16714
一百多	-16715
三文治	-16716
恭维了	-16717
来了一	-16718
桌子的	-16719
甜味的	-16720
▁端上来	-16721
好多次了	-16722
的味道很	-16723
▁头	-16724
切好	-16725
听力	-16726
寂寞	-16727
平静	-16728
拿手	-16729
是买	-16730
来此	-16731
浴缸	-16732
猴子	-16733
碧绿	-16734
诸多	-16735
读物	-16736
准备的	-16737
和别人	-16738
左手边	-16739
环境就	-16740
离学校	-16741
算比较	-16742
非常差	-16743
也没办法	-16744
巧克力和	-16745
腌制过的	-16746
还要排队	-16747
很有特色的	-16748
还点了一份	-16749
这个还不错	-16750
▁味道很不错	-16751
一新	-16752
也小	-16753
勾兑	-16754
卷和	-16755
庆丰	-16756
引人	-16757
摇滚	-16758
放置	-16759
是想	-16760
是满	-16761
更大	-16762
歪歪	-16763
自习	-16764
蕨菜	-16765
身为	-16766
▁爸爸	-16767
一块的	-16768
凉拌的	-16769
又买了	-16770
忽略了	-16771
有一桌	-16772
木瓜炖	-16773
的地步	-16774
都很足	-16775
▁羊肉串	-16776
不太清楚	-16777
也很美味	-16778
大部分是	-16779
生意好的	-16780
稍微有些	-16781
货到付款	-16782
ation	-16783
你了	-16784
在看	-16785
外公	-16786
油油	-16787
简介	-16788
菜叶	-16789
any	-16790
▁前面	-16791
▁都说	-16792
不错滴	-16793
也没了	-16794
可丽饼	-16795
昨天去	-16796
绵绵冰	-16797
觉得有	-16798
退换货	-16799
鲜嫩的	-16800
丝毫没有	-16801
环境不好	-16802
非常漂亮	-16803
▁本来想去	-16804
店里的环境	-16805
我还以为是	-16806
友情	-16807
双菇	-16808
小熊	-16809
找找	-16810
满月	-16811
烤熟	-16812
特大	-16813
转弯	-16814
降价	-16815
▁从小	-16816
也应该	-16817
公园的	-16818
可以让	-16819
多了些	-16820
巷子深	-16821
我们从	-16822
拍照的	-16823
糯米鸡	-16824
这句话	-16825
itty	-16826
▁价格也	-16827
做了一个	-16828
就是这家	-16829
很多年了	-16830
很大一盘	-16831
本来就不	-16832
还可以啦	-16833
非常舒服	-16834
▁离家很近	-16835
个人很喜欢	-16836
大概是因为	-16837
奥尔良烤翅	-16838
一支	-16839
嫩肉	-16840
广播	-16841
异域	-16842
收集	-16843
有水	-16844
次去	-16845
活力	-16846
热带	-16847
电了	-16848
赶在	-16849
餐单	-16850
HKD	-16851
▁一杯	-16852
▁忘记	-16853
▁是在	-16854
免费送	-16855
加盟店	-16856
固定的	-16857
地方小	-16858
恶心了	-16859
摩托罗	-16860
是一层	-16861
比较薄	-16862
甜蜜蜜	-16863
的婚礼	-16864
等位了	-16865
肚子里	-16866
豪大大	-16867
还放了	-16868
都做得	-16869
不知道该	-16870
不过口味	-16871
后来看到	-16872
小桥流水	-16873
抹茶红豆	-16874
有点偏咸	-16875
自己喜欢	-16876
什么的都是	-16877
小时候吃的	-16878
而且服务员	-16879
不明白为什么	-16880
以后不会再去了	-16881
中街	-16882
保守	-16883
唐宫	-16884
抢了	-16885
拆迁	-16886
点钱	-16887
肥猫	-16888
血丝	-16889
靠墙	-16890
▁三个	-16891
一直说	-16892
不上了	-16893
也不敢	-16894
元这个	-16895
吃完的	-16896
啊啊啊	-16897
回上海	-16898
国内的	-16899
总算是	-16900
手机的	-16901
是上海	-16902
服务嘛	-16903
比较香	-16904
没有在	-16905
特色了	-16906
赛百味	-16907
好大一个	-16908
很可爱的	-16909
撒尿牛丸	-16910
这么好吃	-16911
▁如果不是	-16912
元祖	-16913
八喜	-16914
冰渣	-16915
单吃	-16916
大于	-16917
小哥	-16918
就从	-16919
杨浦	-16920
清华	-16921
爽快	-16922
男子	-16923
的爱	-16924
薯格	-16925
路人	-16926
转盘	-16927
铺的	-16928
餐位	-16929
高跟	-16930
VER	-16931
在口中	-16932
就是大	-16933
来之前	-16934
盒子里	-16935
冰激凌球	-16936
她们家的	-16937
我们已经	-16938
肯定不是	-16939
蛮实惠的	-16940
味道很特别	-16941
就那么回事	-16942
bi	-16943
rz	-16944
中最	-16945
主推	-16946
太有	-16947
好长	-16948
字样	-16949
才说	-16950
早的	-16951
更能	-16952
松花	-16953
狭小	-16954
见证	-16955
▁当天	-16956
▁生日	-16957
▁用的	-16958
乒乓球	-16959
反而是	-16960
圆圆的	-16961
在路上	-16962
得要命	-16963
我们点	-16964
浓厚的	-16965
海鲜类	-16966
给朋友	-16967
记住了	-16968
ress	-16969
于是我就	-16970
拔丝地瓜	-16971
比较不错	-16972
真的很赞	-16973
不知道为啥	-16974
这样的服务	-16975
II	-16976
▁写	-16977
一女	-16978
万年	-16979
不完	-16980
两百	-16981
交代	-16982
古北	-16983
啊我	-16984
啥子	-16985
大元	-16986
布甸	-16987
开瓶	-16988
敞亮	-16989
细看	-16990
翼翼	-16991
闲着	-16992
▁鹅肝	-16993
上来就	-16994
人总是	-16995
做一个	-16996
其次是	-16997
和蔬菜	-16998
干锅鸡	-16999
没记住	-17000
还带着	-17001
总体不错	-17002
朋友一起	-17003
脏兮兮的	-17004
驴肉火烧	-17005
价格还可以	-17006
有什么区别	-17007
还是很划算的	-17008
这里的服务员	-17009
凑活	-17010
声明	-17011
干活	-17012
很能	-17013
成绩	-17014
挤了	-17015
盖的	-17016
而非	-17017
锅盔	-17018
鱼块	-17019
▁准备	-17020
动不动	-17021
吃的菜	-17022
开胃的	-17023
拿起来	-17024
有关系	-17025
洗剪吹	-17026
蛮鲜的	-17027
软趴趴	-17028
选择性	-17029
都吃的	-17030
陆家嘴	-17031
可能就是	-17032
来了这里	-17033
硬着头皮	-17034
红烧羊肉	-17035
还有免费的	-17036
不适	-17037
中份	-17038
依家	-17039
傻傻	-17040
只得	-17041
在去	-17042
懒人	-17043
找他	-17044
白云	-17045
营造	-17046
那麼	-17047
长相	-17048
一小盘	-17049
入味了	-17050
包房里	-17051
却发现	-17052
感觉都	-17053
有多好	-17054
特别有	-17055
▁昨天去	-17056
对他家的	-17057
超级至尊	-17058
随叫随到	-17059
办了张会员卡	-17060
争取	-17061
偏油	-17062
博客	-17063
在他	-17064
开过	-17065
忽视	-17066
总比	-17067
投影	-17068
核算	-17069
此行	-17070
灵活	-17071
要高	-17072
遥远	-17073
那人	-17074
零头	-17075
饿着	-17076
ara	-17077
▁上个	-17078
▁放在	-17079
不算是	-17080
又不想	-17081
最讨厌	-17082
苹果汁	-17083
记忆犹	-17084
评价的	-17085
饺子馆	-17086
鸡蛋的	-17087
▁还没有	-17088
不可思议	-17089
吃来吃去	-17090
的时候经常	-17091
dd	-17092
一生	-17093
云云	-17094
凉瓜	-17095
古香	-17096
吉他	-17097
启发	-17098
嗓门	-17099
屋的	-17100
庭院	-17101
江苏	-17102
珠海	-17103
竹子	-17104
美罗	-17105
胃里	-17106
认同	-17107
识别	-17108
逛着	-17109
错觉	-17110
麦香	-17111
The	-17112
也已经	-17113
以前就	-17114
位置的	-17115
如此之	-17116
应该叫	-17117
所以想	-17118
日用品	-17119
服务业	-17120
的大堂	-17121
菜一汤	-17122
让人家	-17123
▁很舒服	-17124
想不起来	-17125
所以现在	-17126
真的好吃	-17127
▁茶	-17128
了她	-17129
会来	-17130
养眼	-17131
创业	-17132
力道	-17133
劣质	-17134
吱吱	-17135
夏季	-17136
多放	-17137
工夫	-17138
梭子	-17139
注明	-17140
漏单	-17141
目了	-17142
肩膀	-17143
蕃茄	-17144
辽参	-17145
镜片	-17146
闹的	-17147
面店	-17148
高啊	-17149
▁同时	-17150
▁打开	-17151
▁菠萝	-17152
东西也	-17153
优衣库	-17154
凤尾虾	-17155
原来在	-17156
可以来	-17157
挺干净	-17158
有点重	-17159
然后把	-17160
百叶包	-17161
的旁边	-17162
看图片	-17163
本来打算	-17164
的小吃店	-17165
的是那个	-17166
适合情侣	-17167
非常美味	-17168
鲜肉月饼	-17169
都是不错的	-17170
的味道很不错	-17171
DA	-17172
上车	-17173
也可	-17174
书上	-17175
吃就	-17176
就变	-17177
手打	-17178
标识	-17179
烧汁	-17180
的海	-17181
西饼	-17182
颜六	-17183
mon	-17184
▁不想	-17185
▁效果	-17186
丝丝的	-17187
保持了	-17188
吃辣的	-17189
喝奶茶	-17190
坑爹啊	-17191
的一锅	-17192
老好的	-17193
过期了	-17194
▁经常去	-17195
不过最后	-17196
其他的都	-17197
到了这家	-17198
味道不够	-17199
感觉就像	-17200
来了一个	-17201
的味道也	-17202
美好的回忆	-17203
鲜虾云吞面	-17204
▁卖	-17205
▁蛋	-17206
先进	-17207
咗个	-17208
山水	-17209
当下	-17210
往外	-17211
特有	-17212
真没	-17213
街坊	-17214
要换	-17215
走啊	-17216
长度	-17217
韭黄	-17218
鸡骨	-17219
▁晚餐	-17220
一个汤	-17221
差一些	-17222
帝王蟹	-17223
我的是	-17224
时尚的	-17225
有一道	-17226
用完了	-17227
给力了	-17228
▁很新鲜	-17229
买了一杯	-17230
买过一次	-17231
叫了一个	-17232
当然还有	-17233
不是特别多	-17234
一打	-17235
名了	-17236
咪咪	-17237
感染	-17238
抗拒	-17239
有素	-17240
柿子	-17241
财富	-17242
POS	-17243
▁酸奶	-17244
▁黄瓜	-17245
中秋节	-17246
口出来	-17247
吃饭时	-17248
实用的	-17249
很有爱	-17250
没去了	-17251
玻璃杯	-17252
的发展	-17253
要求的	-17254
买了一本	-17255
怎么怎么	-17256
我们这桌	-17257
所以这个	-17258
有些小贵	-17259
点评一下	-17260
特别想吃	-17261
老字号了	-17262
不过服务员	-17263
但是他家的	-17264
叫来服务员	-17265
还真是不错	-17266
▁i	-17267
▁现	-17268
兑水	-17269
勇敢	-17270
勾起	-17271
把他	-17272
斯的	-17273
新出	-17274
有用	-17275
柜里	-17276
没能	-17277
的虾	-17278
等下	-17279
系的	-17280
薏米	-17281
采访	-17282
面里	-17283
▁排队	-17284
▁目前	-17285
你要是	-17286
半成品	-17287
宜芝多	-17288
成熟的	-17289
淘宝上	-17290
热腾腾	-17291
的状态	-17292
胖胖的	-17293
逛了逛	-17294
价格不菲	-17295
好多东西	-17296
水果拼盘	-17297
还是那个	-17298
里面环境	-17299
鲜虾云吞	-17300
喜欢吃他家的	-17301
▁煮	-17302
不符	-17303
体重	-17304
何必	-17305
刚到	-17306
博士	-17307
地了	-17308
块吧	-17309
工薪	-17310
打击	-17311
无从	-17312
此次	-17313
油脂	-17314
烧了	-17315
玲珑	-17316
芋泥	-17317
还小	-17318
邦邦	-17319
都看	-17320
阻止	-17321
▁鱼头	-17322
以为会	-17323
会主动	-17324
地瓜片	-17325
外面有	-17326
好奇心	-17327
我看了	-17328
没多大	-17329
番茄汁	-17330
的小妹	-17331
简简单	-17332
茶位费	-17333
路边的	-17334
▁原来是	-17335
仔细一看	-17336
名字忘了	-17337
就是我们	-17338
我觉得是	-17339
过了一会	-17340
的时候服务员	-17341
po	-17342
▁酒	-17343
伴娘	-17344
公馆	-17345
在想	-17346
就全	-17347
尽头	-17348
愤怒	-17349
机械	-17350
浩浩	-17351
湖边	-17352
负担	-17353
▁牛舌	-17354
▁送货	-17355
但是是	-17356
后感觉	-17357
对这家	-17358
的比例	-17359
统一的	-17360
草莓的	-17361
还算多	-17362
速度快	-17363
铁观音	-17364
也没怎么	-17365
午饭时间	-17366
比较麻烦	-17367
▁店面不大	-17368
▁非常好吃	-17369
味道也还行	-17370
朋友推荐的	-17371
还是很高的	-17372
不菲	-17373
其间	-17374
尔的	-17375
成人	-17376
的哈	-17377
蓬松	-17378
说没	-17379
辣松	-17380
鼓巷	-17381
roo	-17382
sta	-17383
▁相信	-17384
东北的	-17385
出彩的	-17386
只适合	-17387
在西安	-17388
就会有	-17389
快吃完	-17390
总的说	-17391
服务么	-17392
烤好的	-17393
烤茄子	-17394
畅饮的	-17395
都要等	-17396
几张桌子	-17397
就是这么	-17398
所以我就	-17399
最好吃了	-17400
的很舒服	-17401
要了两个	-17402
觉得这家	-17403
都有一个	-17404
下午茶时间	-17405
也很好吃的	-17406
做的还不错	-17407
来这里的人	-17408
还是很喜欢	-17409
▁各	-17410
了哈	-17411
做脸	-17412
几串	-17413
北门	-17414
喊了	-17415
天哪	-17416
她还	-17417
尼玛	-17418
教师	-17419
月亮	-17420
沾了	-17421
瘦身	-17422
能否	-17423
角质	-17424
许留	-17425
阁楼	-17426
麻木	-17427
▁可见	-17428
▁因為	-17429
也知道	-17430
人喜欢	-17431
伦不类	-17432
可以给	-17433
和闺蜜	-17434
店内的	-17435
指示牌	-17436
没有太	-17437
竟然还	-17438
红楼梦	-17439
都不要	-17440
需要等	-17441
点了招牌	-17442
量也很足	-17443
他家的特色	-17444
亲身	-17445
以後	-17446
优格	-17447
你想	-17448
北大	-17449
四年	-17450
士顿	-17451
夫子	-17452
婚姻	-17453
就唔	-17454
挺足	-17455
时而	-17456
金山	-17457
默认	-17458
▁客人	-17459
▁烤鱼	-17460
一半是	-17461
不能算	-17462
在大厅	-17463
小土豆	-17464
提到的	-17465
是好的	-17466
的个头	-17467
的喜欢	-17468
的手机	-17469
的路上	-17470
破坏了	-17471
给别人	-17472
西洋菜	-17473
解释说	-17474
还是那	-17475
▁上次去	-17476
以后应该	-17477
可以吃的	-17478
好了很多	-17479
干巴巴的	-17480
真的是太	-17481
确实好吃	-17482
金针菇和	-17483
的时候感觉	-17484
果然名不虚传	-17485
▁猪	-17486
▁百	-17487
两大	-17488
價錢	-17489
别桌	-17490
动漫	-17491
如愿	-17492
家庄	-17493
席间	-17494
慢啊	-17495
汗啊	-17496
翻阅	-17497
话筒	-17498
飲料	-17499
sal	-17500
▁be	-17501
▁老婆	-17502
▁谢谢	-17503
也超级	-17504
好像就	-17505
安排的	-17506
就有人	-17507
很松软	-17508
很清晰	-17509
我们吃	-17510
粉色的	-17511
还没来	-17512
适中的	-17513
鱼肉的	-17514
北京烤鸭	-17515
大概就是	-17516
比较丰富	-17517
玉米浓汤	-17518
第二天的	-17519
都不便宜	-17520
一点都不腻	-17521
第二天早上	-17522
终于找到了	-17523
ba	-17524
刮痧	-17525
单买	-17526
对焦	-17527
开场	-17528
得住	-17529
晚市	-17530
未免	-17531
核心	-17532
桃花	-17533
点啊	-17534
烤羊	-17535
犹如	-17536
真係	-17537
绝望	-17538
贴的	-17539
陪伴	-17540
韵味	-17541
鱼锅	-17542
麦片	-17543
黑糖	-17544
▁今日	-17545
▁没吃	-17546
不开心	-17547
先上了	-17548
印刷和	-17549
厨师的	-17550
味道吧	-17551
咖啡豆	-17552
大家乐	-17553
年代的	-17554
很贵的	-17555
牛肉是	-17556
吃的感觉	-17557
应该都是	-17558
我们公司	-17559
摩托罗拉	-17560
比较简单	-17561
真的很少	-17562
量还可以	-17563
隔音效果	-17564
一点味道都没有	-17565
一页	-17566
严肃	-17567
书名	-17568
印尼	-17569
和气	-17570
喳喳	-17571
家电	-17572
对外	-17573
山羊	-17574
帮子	-17575
拉手	-17576
水和	-17577
盘肉	-17578
看人	-17579
碗汤	-17580
精力	-17581
薄脆	-17582
袜子	-17583
蹄膀	-17584
迷茫	-17585
震惊	-17586
顺口	-17587
▁饺子	-17588
下面有	-17589
以后要	-17590
体育馆	-17591
好久了	-17592
就变成	-17593
来回回	-17594
要是有	-17595
还是小	-17596
鸡蛋羹	-17597
一人一份	-17598
也是非常	-17599
和外面的	-17600
没有问题	-17601
然后我就	-17602
的一个菜	-17603
而且现在	-17604
蒜蓉粉丝	-17605
走来走去	-17606
heese	-17607
就是不知道	-17608
深刻的印象	-17609
▁并	-17610
上等	-17611
八珍	-17612
否认	-17613
味重	-17614
带去	-17615
往北	-17616
气人	-17617
的鸡	-17618
篦子	-17619
苦涩	-17620
都听	-17621
▁小料	-17622
下的单	-17623
二三十	-17624
享受的	-17625
冻奶茶	-17626
和海鲜	-17627
在那个	-17628
定的是	-17629
开放的	-17630
挺少的	-17631
烤羊肉	-17632
牛尾汤	-17633
电视台	-17634
的地理	-17635
看中了	-17636
胃口的	-17637
要是再	-17638
都很小	-17639
驴打滚	-17640
鸡排饭	-17641
鸡翅膀	-17642
ipad	-17643
▁他们的	-17644
冰淇淋球	-17645
华丽丽的	-17646
口味很好	-17647
很不喜欢	-17648
欢迎光临	-17649
比必胜客	-17650
还不错哦	-17651
不是很清楚	-17652
所以不知道	-17653
不顾	-17654
会比	-17655
偏硬	-17656
吃過	-17657
在饭	-17658
就太	-17659
左转	-17660
更香	-17661
粉粉	-17662
角的	-17663
▁无论	-17664
一层是	-17665
口味也	-17666
只是想	-17667
可惜我	-17668
很气派	-17669
我开始	-17670
是凉的	-17671
苹果派	-17672
还是别	-17673
银行的	-17674
高高的	-17675
不够入味	-17676
也不难吃	-17677
也比较好	-17678
感觉不到	-17679
拍婚纱照	-17680
最普通的	-17681
最爱吃的	-17682
菜的种类	-17683
面包蛋糕	-17684
马路对面	-17685
人地	-17686
可笑	-17687
嘉定	-17688
复旦	-17689
左手	-17690
帮人	-17691
我所	-17692
油焖	-17693
生怕	-17694
给出	-17695
葱烧	-17696
要少	-17697
都买	-17698
配餐	-17699
钱啊	-17700
隐藏	-17701
▁因此	-17702
▁逛街	-17703
上厕所	-17704
不上来	-17705
不错啦	-17706
也没见	-17707
了出来	-17708
又不失	-17709
品尝了	-17710
大众的	-17711
就去吃	-17712
很用心	-17713
我经常	-17714
搞错了	-17715
给你们	-17716
都会买	-17717
因为我是	-17718
很有名的	-17719
有点老了	-17720
爱不释手	-17721
蛮好喝的	-17722
态度也很好	-17723
也是很不错的	-17724
上升	-17725
了哦	-17726
五楼	-17727
亲和	-17728
嗯嗯	-17729
客栈	-17730
引进	-17731
携程	-17732
有好	-17733
潮流	-17734
皮萨	-17735
脸型	-17736
蒿子	-17737
边看	-17738
▁停车	-17739
什么叫	-17740
垃圾桶	-17741
基本就	-17742
必点菜	-17743
我肯定	-17744
的形式	-17745
认识的	-17746
送来了	-17747
重头戏	-17748
价格比较	-17749
像我这种	-17750
八宝辣酱	-17751
会说	-17752
充实	-17753
探索	-17754
沙沙	-17755
烤饼	-17756
的这	-17757
省事	-17758
西南	-17759
郊区	-17760
闻名	-17761
▁培根	-17762
▁当初	-17763
一点是	-17764
不厚道	-17765
嘴巴里	-17766
客流量	-17767
层次感	-17768
新疆人	-17769
求必应	-17770
理发店	-17771
的一楼	-17772
称之为	-17773
给妈妈	-17774
都是以	-17775
都那么	-17776
▁这个菜	-17777
▁这里是	-17778
建议不要	-17779
有自己的	-17780
这个店的	-17781
里面全是	-17782
一边吃一边	-17783
也不是很大	-17784
大家都知道	-17785
选择了这家	-17786
叫什么名字了	-17787
对得起这个价格	-17788
~~~~~~~~~~~	-17789
▁马	-17790
上写	-17791
关闭	-17792
卤汁	-17793
只用	-17794
吃啦	-17795
吃惊	-17796
基于	-17797
度数	-17798
念叨	-17799
海陆	-17800
灵敏	-17801
炸物	-17802
脑海	-17803
菜包	-17804
▁位于	-17805
▁芥末	-17806
了一定	-17807
享受啊	-17808
吧不过	-17809
国外的	-17810
我可是	-17811
我想说	-17812
死人了	-17813
毛毛虫	-17814
甜品的	-17815
的汤底	-17816
的老外	-17817
粉粉的	-17818
觉得这	-17819
▁在上海	-17820
▁新开的	-17821
以后可以	-17822
味道很重	-17823
干煸豆角	-17824
感觉不是	-17825
要不就是	-17826
尤其是那个	-17827
抱着试试看的	-17828
两半	-17829
九点	-17830
亲手	-17831
剪完	-17832
动画	-17833
句子	-17834
学到	-17835
居酒	-17836
扯面	-17837
抄袭	-17838
抢手	-17839
指出	-17840
教你	-17841
死机	-17842
淑女	-17843
留恋	-17844
enu	-17845
▁参加	-17846
一直对	-17847
价格嘛	-17848
凑合吧	-17849
吃吃的	-17850
很冷清	-17851
成都的	-17852
无比的	-17853
是需要	-17854
有点怪	-17855
满足啊	-17856
牛肝菌	-17857
童鞋们	-17858
遇到过	-17859
量很多	-17860
▁现在的	-17861
上的很快	-17862
倒还可以	-17863
品尝一下	-17864
因为自己	-17865
打电话问	-17866
要等很久	-17867
▁蛮好吃的	-17868
出来的味道	-17869
就不怎么样了	-17870
一查	-17871
和一	-17872
姜葱	-17873
定义	-17874
小葱	-17875
按钮	-17876
没多	-17877
粑粑	-17878
粥底	-17879
能再	-17880
译者	-17881
豪享	-17882
起步	-17883
青蛙	-17884
▁外皮	-17885
▁我还	-17886
▁相对	-17887
▁香辣	-17888
以前去	-17889
但是和	-17890
使用了	-17891
俏江南	-17892
北京路	-17893
北方的	-17894
城市的	-17895
大爱的	-17896
学生的	-17897
我一向	-17898
我们不	-17899
才是最	-17900
挺鲜的	-17901
是甜的	-17902
有客人	-17903
美食城	-17904
路由器	-17905
鸭子的	-17906
黑椒汁	-17907
就在旁边	-17908
心理作用	-17909
的时候也	-17910
给我留下	-17911
说什么了	-17912
▁石锅拌饭	-17913
毫不犹豫的	-17914
还是不错的选择	-17915
XD	-17916
中翅	-17917
为此	-17918
其烦	-17919
回归	-17920
地摊	-17921
安徽	-17922
情操	-17923
挣扎	-17924
文具	-17925
旅馆	-17926
某次	-17927
深处	-17928
灰色	-17929
珍藏	-17930
笋片	-17931
节课	-17932
越好	-17933
▁座位	-17934
不算少	-17935
今年的	-17936
分量少	-17937
开放式	-17938
我们把	-17939
所吸引	-17940
有两层	-17941
汽锅鸡	-17942
芒果味	-17943
过年了	-17944
都有人	-17945
交通方便	-17946
他们自己	-17947
在搞活动	-17948
应该说是	-17949
很舒服的	-17950
有点遗憾	-17951
▁个人认为	-17952
干锅茶树菇	-17953
▁可能是因为	-17954
Co	-17955
ss	-17956
上回	-17957
会上	-17958
划痕	-17959
吹着	-17960
恩恩	-17961
惊叹	-17962
熬制	-17963
目光	-17964
真相	-17965
笑着	-17966
薯仔	-17967
铺着	-17968
阳路	-17969
▁像是	-17970
但如果	-17971
出现的	-17972
厉害了	-17973
才有的	-17974
拿回去	-17975
烤馒头	-17976
的角度	-17977
看着挺	-17978
路过的	-17979
辣椒粉	-17980
还帮我	-17981
不是很足	-17982
吃过的最	-17983
味道很棒	-17984
有点意思	-17985
查了一下	-17986
过去吃的	-17987
这是一个	-17988
一直很喜欢	-17989
甜甜的味道	-17990
慢慢慢慢慢慢慢慢慢慢慢慢慢慢慢慢	-17991
▁!	-17992
▁包	-17993
▁因	-17994
一轮	-17995
几粒	-17996
卤面	-17997
呼噜	-17998
哭了	-17999
坐落	-18000
特卖	-18001
看这	-18002
轮到	-18003
面料	-18004
vip	-18005
▁每人	-18006
▁纸张	-18007
主打的	-18008
也点了	-18009
再一次	-18010
对我的	-18011
有三个	-18012
有很大	-18013
比之前	-18014
用过的	-18015
百分之	-18016
第一本	-18017
老式的	-18018
蛮快的	-18019
调制的	-18020
这么差	-18021
不过真的	-18022
人声鼎沸	-18023
值得称赞	-18024
十字路口	-18025
楼上楼下	-18026
的味道好	-18027
▁不错不错	-18028
价格很便宜	-18029
大众点评的	-18030
服务很周到	-18031
丫头	-18032
也跟	-18033
似地	-18034
便捷	-18035
光光	-18036
分吧	-18037
吃飯	-18038
咸咸	-18039
大个	-18040
消遣	-18041
用力	-18042
观看	-18043
诚恳	-18044
还早	-18045
长安	-18046
一扫而	-18047
他们就	-18048
分钟才	-18049
呢间野	-18050
当时我	-18051
是下午	-18052
椒盐的	-18053
用手机	-18054
白芝麻	-18055
的想法	-18056
的鲜味	-18057
经历了	-18058
超值的	-18059
酸辣的	-18060
▁我记得	-18061
兜了一圈	-18062
单位附近	-18063
吃了几次	-18064
很耐心的	-18065
都能看到	-18066
▁朋友推荐	-18067
老板很热情	-18068
一数	-18069
一通	-18070
口重	-18071
汤味	-18072
看她	-18073
知的	-18074
紧致	-18075
莘庄	-18076
观前	-18077
豚骨	-18078
迷宫	-18079
面试	-18080
▁样子	-18081
一直吃	-18082
不够多	-18083
应有的	-18084
很清新	-18085
热心的	-18086
的文字	-18087
肥肉的	-18088
麻烦了	-18089
▁大部分	-18090
一定要去	-18091
丝袜奶茶	-18092
发现原来	-18093
最后买单	-18094
海南鸡饭	-18095
老北京的	-18096
虽然现在	-18097
自己的口味	-18098
arbucks	-18099
PU	-18100
ki	-18101
▁么	-18102
个饭	-18103
可比	-18104
幅度	-18105
张江	-18106
挺嫩	-18107
来上	-18108
皇后	-18109
票的	-18110
饕餮	-18111
饭前	-18112
出去吃	-18113
就直奔	-18114
就让人	-18115
居然在	-18116
形式的	-18117
很多店	-18118
拿走了	-18119
木鱼花	-18120
武昌鱼	-18121
答应了	-18122
认识了	-18123
麻酱油	-18124
wait	-18125
不过来了	-18126
就是普通	-18127
就来这里	-18128
挺热情的	-18129
这样的话	-18130
价钱也不贵	-18131
还是有点小	-18132
DS	-18133
两侧	-18134
京城	-18135
公仔	-18136
凡是	-18137
吆喝	-18138
心目	-18139
执着	-18140
海岸	-18141
烧饭	-18142
约上	-18143
蒸菜	-18144
补偿	-18145
试衣	-18146
都么	-18147
骨茶	-18148
高脚	-18149
▁甜点	-18150
▁鳗鱼	-18151
仙踪林	-18152
很多啊	-18153
心情好	-18154
感觉不	-18155
秘制的	-18156
自己加	-18157
韭菜花	-18158
黏黏的	-18159
soso	-18160
▁再说说	-18161
不过确实	-18162
但是他们	-18163
但是口感	-18164
只有两个	-18165
屁颠屁颠	-18166
快吃完了	-18167
找了好久	-18168
搞笑搞笑	-18169
浩浩荡荡	-18170
SB	-18171
人而	-18172
借着	-18173
内陷	-18174
口口	-18175
大好	-18176
子了	-18177
清一	-18178
贴在	-18179
青团	-18180
龙的	-18181
alk	-18182
▁食材	-18183
严重的	-18184
了一起	-18185
全部都	-18186
完成了	-18187
收盘子	-18188
比较全	-18189
汤里面	-18190
一会儿就	-18191
估计都是	-18192
地方很小	-18193
我们吃了	-18194
评价不错	-18195
这家酒店	-18196
大家的点评	-18197
给我的印象	-18198
HD	-18199
下水	-18200
串的	-18201
去取	-18202
口语	-18203
合格	-18204
和在	-18205
措施	-18206
摸着	-18207
收录	-18208
瓶装	-18209
素材	-18210
读的	-18211
赫赫	-18212
金刚	-18213
▁期待	-18214
▁楼下	-18215
一大早	-18216
乌龙茶	-18217
周末去	-18218
和男友	-18219
外面包	-18220
大不如	-18221
好像没	-18222
带走了	-18223
很遗憾	-18224
油腻腻	-18225
甜点的	-18226
菜做得	-18227
菜的话	-18228
配的是	-18229
非常赞	-18230
鱼面筋	-18231
不算很多	-18232
也非常的	-18233
非常不好	-18234
我还是觉得	-18235
味道还算不错	-18236
上手	-18237
人桌	-18238
古城	-18239
哈利	-18240
奇迹	-18241
封皮	-18242
很累	-18243
数了	-18244
浓重	-18245
涮品	-18246
生滚	-18247
都打	-18248
一共才	-18249
不要再	-18250
先不说	-18251
吃好饭	-18252
喝下去	-18253
大头菜	-18254
天花板	-18255
好可爱	-18256
当年的	-18257
新开业	-18258
汤里的	-18259
看别人	-18260
真的不	-18261
自家的	-18262
辣椒的	-18263
都是人	-18264
好像有点	-18265
尤其是在	-18266
怎么那么	-18267
满满当当	-18268
点了一堆	-18269
还是因为	-18270
▁点了一份	-18271
还是很大的	-18272
▁·	-18273
从中	-18274
低价	-18275
先在	-18276
共鸣	-18277
农民	-18278
冰爽	-18279
出面	-18280
劳动	-18281
单球	-18282
后果	-18283
对人	-18284
将来	-18285
小片	-18286
挺高	-18287
排场	-18288
选用	-18289
金城	-18290
▁来了	-18291
他们店	-18292
但我们	-18293
分辨率	-18294
喝早茶	-18295
接待的	-18296
收钱的	-18297
汤不错	-18298
离单位	-18299
记不得	-18300
还吃过	-18301
都还行	-18302
黄瓜条	-18303
SOHO	-18304
也是相当	-18305
进口食品	-18306
的一家餐厅	-18307
一分价钱一分货	-18308
pe	-18309
um	-18310
不良	-18311
主流	-18312
到爆	-18313
南北	-18314
和水	-18315
块头	-18316
就少	-18317
忙脚	-18318
把你	-18319
桃酥	-18320
洋芋	-18321
胜过	-18322
腔调	-18323
表哥	-18324
长途	-18325
▁--	-18326
一两个	-18327
傻眼了	-18328
去买的	-18329
发言权	-18330
可以要	-18331
她们家	-18332
寒冷的	-18333
对这种	-18334
是一位	-18335
样东西	-18336
生菜和	-18337
用什么	-18338
经济学	-18339
运气好	-18340
这么小	-18341
黄瓜和	-18342
▁不怎么	-18343
▁毕竟是	-18344
但是这次	-18345
发现这里	-18346
环境还是	-18347
味道还是很不错的	-18348
一提	-18349
之上	-18350
从而	-18351
发誓	-18352
微酸	-18353
忍住	-18354
恒隆	-18355
扩大	-18356
果阵	-18357
树木	-18358
汗蒸	-18359
洗牙	-18360
渴望	-18361
阐述	-18362
陪同	-18363
點評	-18364
▁马上	-18365
上一层	-18366
上了一	-18367
不行啊	-18368
才买的	-18369
盘子的	-18370
那个酱	-18371
▁但还是	-18372
一端上来	-18373
书的质量	-18374
发现这家	-18375
团购去的	-18376
技术含量	-18377
特别特别	-18378
的感觉是	-18379
老字号的	-18380
肉松面包	-18381
▁搞	-18382
一批	-18383
与否	-18384
优越	-18385
住宅	-18386
全新	-18387
几回	-18388
大骨	-18389
指挥	-18390
普及	-18391
砍价	-18392
肌肉	-18393
葡式	-18394
让偶	-18395
超快	-18396
问下	-18397
ktv	-18398
也去过	-18399
加州卷	-18400
勤快的	-18401
很难找	-18402
椅子上	-18403
永和大	-18404
浪费啊	-18405
的冲动	-18406
的杯子	-18407
硬邦邦	-18408
能看见	-18409
青豆泥	-18410
不是太多	-18411
去吃的话	-18412
熬出来的	-18413
还算好找	-18414
选在这里	-18415
雪花牛肉	-18416
▁这家店在	-18417
比较好吃的	-18418
色香味俱全	-18419
这个牌子的	-18420
之人	-18421
了小	-18422
众人	-18423
另加	-18424
叫左	-18425
嘉茂	-18426
奋斗	-18427
山珍	-18428
幽雅	-18429
斯汀	-18430
本事	-18431
每月	-18432
混杂	-18433
草原	-18434
荷塘	-18435
道具	-18436
金陵	-18437
韩剧	-18438
ino	-18439
ran	-18440
▁__	-18441
他们都	-18442
减肥的	-18443
土腥味	-18444
就住在	-18445
我们没	-18446
有名气	-18447
来这吃	-18448
果粒橙	-18449
深深的	-18450
看看书	-18451
附近有	-18452
一个礼拜	-18453
于是点了	-18454
吃了两个	-18455
喜欢上了	-18456
因为朋友	-18457
招呼我们	-18458
赏心悦目	-18459
不准	-18460
不快	-18461
之行	-18462
亲子	-18463
利润	-18464
受益	-18465
咸蛋	-18466
大地	-18467
大衣	-18468
她在	-18469
崇明	-18470
店门	-18471
心得	-18472
暴多	-18473
油大	-18474
特尔	-18475
磕了	-18476
稀奇	-18477
自驾	-18478
葡国	-18479
高丽	-18480
▁on	-18481
▁糯米	-18482
厌其烦	-18483
厦门的	-18484
女人的	-18485
很酥脆	-18486
心满意	-18487
梭子蟹	-18488
混合着	-18489
第三个	-18490
老板还	-18491
貌似有	-18492
上菜很慢	-18493
很一般的	-18494
挺特别的	-18495
还是很多	-18496
那么多了	-18497
那天晚上	-18498
我不太喜欢	-18499
我们要的是	-18500
非常非常的	-18501
金针菇牛肉卷	-18502
SI	-18503
一处	-18504
作孽	-18505
出自	-18506
利落	-18507
发音	-18508
奶冻	-18509
就成	-18510
就打	-18511
建国	-18512
总部	-18513
懒散	-18514
手剥	-18515
找我	-18516
擅长	-18517
晃悠	-18518
极少	-18519
没给	-18520
甜咸	-18521
缭绕	-18522
蚂蚁	-18523
裝修	-18524
说去	-18525
都来	-18526
香蒜	-18527
▁书中	-18528
▁国庆	-18529
▁新鲜	-18530
一晚上	-18531
不算小	-18532
五颜六	-18533
出去玩	-18534
好多菜	-18535
就自己	-18536
弄堂里	-18537
得很快	-18538
新开了	-18539
有些许	-18540
海带汤	-18541
海鲜面	-18542
生生的	-18543
要好好	-18544
超市买	-18545
还提供	-18546
里没有	-18547
▁不晓得	-18548
口味还行	-18549
可以尝尝	-18550
就在那里	-18551
巧克力味	-18552
已经不是	-18553
环境还好	-18554
肉的味道	-18555
过来吃的	-18556
里面很多	-18557
非常鲜美	-18558
鱼的味道	-18559
share	-18560
▁味	-18561
七点	-18562
不叫	-18563
个好	-18564
公平	-18565
可恶	-18566
干吗	-18567
很嗲	-18568
摸索	-18569
查看	-18570
江团	-18571
的点	-18572
网的	-18573
考研	-18574
航空	-18575
豁然	-18576
起到	-18577
元宝虾	-18578
后觉得	-18579
咖喱虾	-18580
小南国	-18581
找他们	-18582
旅行社	-18583
木质的	-18584
每个菜	-18585
皮很薄	-18586
还有待	-18587
▁for	-18588
▁有一个	-18589
不仅仅是	-18590
个人去的	-18591
也比较大	-18592
慕斯蛋糕	-18593
清汤锅底	-18594
经过这里	-18595
里面也有	-18596
他们家的菜	-18597
ev	-18598
丝的	-18599
偷懒	-18600
冬日	-18601
占地	-18602
吃多	-18603
哈好	-18604
大娘	-18605
想再	-18606
碰碰	-18607
胳膊	-18608
蒸饭	-18609
身心	-18610
闪闪	-18611
餐台	-18612
骑车	-18613
鲁迅	-18614
ucc	-18615
但由于	-18616
发现在	-18617
太干了	-18618
夹起来	-18619
好味道	-18620
武汉的	-18621
清新的	-18622
▁一进去	-18623
去的次数	-18624
可供选择	-18625
的自助餐	-18626
装修不错	-18627
▁但是还是	-18628
优惠券去的	-18629
▁安	-18630
上层	-18631
乱了	-18632
二来	-18633
免了	-18634
听闻	-18635
实质	-18636
我点	-18637
才叫	-18638
才把	-18639
报价	-18640
文蛤	-18641
时隔	-18642
补水	-18643
铺在	-18644
陪她	-18645
麻椒	-18646
XXX	-18647
▁很鲜	-18648
▁空调	-18649
告诉他	-18650
好的了	-18651
师傅的	-18652
很难得	-18653
有一款	-18654
油了点	-18655
焗南瓜	-18656
牛肉锅	-18657
牛腩面	-18658
特点的	-18659
纯粹是	-18660
翻译的	-18661
这辈子	-18662
香酥鸡	-18663
也不错哦	-18664
买了一盒	-18665
人都很多	-18666
什么特别	-18667
但吃起来	-18668
可能也是	-18669
很便宜的	-18670
看得出来	-18671
糟溜鱼片	-18672
还有个小	-18673
这个是我	-18674
特别的好吃	-18675
还是挺大的	-18676
一比	-18677
去食	-18678
和菜	-18679
在天	-18680
垫垫	-18681
姑姑	-18682
我怕	-18683
改为	-18684
暧昧	-18685
正面	-18686
沾料	-18687
游览	-18688
着想	-18689
策略	-18690
算上	-18691
群体	-18692
胜利	-18693
草菇	-18694
贵些	-18695
边炉	-18696
鱼骨	-18697
▁ho	-18698
▁继续	-18699
一块儿	-18700
不吃了	-18701
不过呢	-18702
偏甜的	-18703
做指甲	-18704
十三香	-18705
夫子庙	-18706
毕业了	-18707
玻璃的	-18708
真是够	-18709
米左右	-18710
装饰的	-18711
走到了	-18712
还挺好	-18713
这样了	-18714
送一份	-18715
一个套餐	-18716
为什么要	-18717
另外就是	-18718
好像不是	-18719
就点了个	-18720
炸出来的	-18721
非常好喝	-18722
基本上就是	-18723
符合我的口味	-18724
这里的服务态度	-18725
一名	-18726
不计	-18727
全了	-18728
去时	-18729
双味	-18730
口蘑	-18731
哇哇	-18732
块多	-18733
宗教	-18734
家族	-18735
把肉	-18736
改观	-18737
樟茶	-18738
片刻	-18739
等你	-18740
等级	-18741
精灵	-18742
网吧	-18743
肋骨	-18744
读过	-18745
食府	-18746
ity	-18747
www	-18748
▁龙虾	-18749
也很差	-18750
了还有	-18751
到他家	-18752
包心菜	-18753
南京的	-18754
在楼下	-18755
多多的	-18756
小说的	-18757
带朋友	-18758
必要的	-18759
想看看	-18760
点了菜	-18761
的看着	-18762
人来人往	-18763
环境真的	-18764
真心好吃	-18765
而且这个	-18766
还没上来	-18767
难吃难吃	-18768
▁不过还是	-18769
不怕巷子深	-18770
相当的不错	-18771
AB	-18772
下吧	-18773
之感	-18774
八个	-18775
八点	-18776
十点	-18777
只鸡	-18778
某日	-18779
电信	-18780
當然	-18781
着呢	-18782
肉眼	-18783
肉饭	-18784
起卖	-18785
送我	-18786
食之	-18787
▁生蚝	-18788
下午去	-18789
不够好	-18790
冰柜里	-18791
几个小	-18792
又贵又	-18793
口感和	-18794
建议我	-18795
很好啊	-18796
是个小	-18797
自己选	-18798
装修后	-18799
退掉了	-18800
找不到了	-18801
烧味拼盘	-18802
看看看看	-18803
觉得还行	-18804
▁每次都是	-18805
慕名而去的	-18806
等了一会儿	-18807
终于有机会	-18808
我不知道我不知道	-18809
不幸	-18810
二字	-18811
只的	-18812
台灯	-18813
吝啬	-18814
唇齿	-18815
多样	-18816
存储	-18817
很纯	-18818
模特	-18819
疲劳	-18820
的队	-18821
不经意	-18822
准备好	-18823
后来才	-18824
带去的	-18825
有些贵	-18826
没有放	-18827
的寿司	-18828
结果被	-18829
试试吧	-18830
问一下	-18831
非常快	-18832
▁再加上	-18833
▁接下来	-18834
不过总体	-18835
服务很差	-18836
服务生说	-18837
要求不高	-18838
里面都有	-18839
老板和老板娘	-18840
▁饼	-18841
不冷	-18842
光泽	-18843
冲了	-18844
几下	-18845
到来	-18846
咋样	-18847
大菜	-18848
夹在	-18849
就无	-18850
有礼	-18851
杂拌	-18852
渗透	-18853
满是	-18854
痒痒	-18855
红包	-18856
花哨	-18857
苏式	-18858
顶上	-18859
點的	-18860
▁宏碁	-18861
▁餐具	-18862
两家店	-18863
中午有	-18864
充电器	-18865
可以先	-18866
多少人	-18867
大床房	-18868
就有些	-18869
很小资	-18870
捞出来	-18871
的图片	-18872
皮薄馅	-18873
真是的	-18874
红豆糕	-18875
跟老板	-18876
那个是	-18877
那天的	-18878
点了不少	-18879
等了大概	-18880
这么便宜	-18881
实在吃不下了	-18882
我比较喜欢吃	-18883
书局	-18884
书是	-18885
充数	-18886
出生	-18887
喧哗	-18888
多得	-18889
对你	-18890
尺码	-18891
得以	-18892
找钱	-18893
拐角	-18894
是谁	-18895
梅肉	-18896
滚滚	-18897
粢饭	-18898
而家	-18899
蟹壳	-18900
障碍	-18901
难过	-18902
不远处	-18903
口香糖	-18904
向我们	-18905
在手上	-18906
坐落在	-18907
大杂烩	-18908
大点的	-18909
大骨头	-18910
好伦哥	-18911
振鼎鸡	-18912
接受了	-18913
朗姆酒	-18914
火锅里	-18915
百叶结	-18916
盐水鸭	-18917
直接吃	-18918
了一大圈	-18919
出去吃饭	-18920
四分之一	-18921
好好吃哦	-18922
很是喜欢	-18923
我吃的是	-18924
所以决定	-18925
这是一家	-18926
人少的时候	-18927
味道也可以	-18928
腊味煲仔饭	-18929
环境不是很好	-18930
几遍	-18931
刷了	-18932
华的	-18933
往后	-18934
怠慢	-18935
愣是	-18936
抛弃	-18937
排除	-18938
是你	-18939
档的	-18940
歌舞	-18941
比在	-18942
污染	-18943
班级	-18944
琵琶	-18945
种的	-18946
笑笑	-18947
精光	-18948
進去	-18949
避开	-18950
iss	-18951
不吃辣	-18952
不注意	-18953
会有点	-18954
到下午	-18955
单位的	-18956
又有点	-18957
大胃王	-18958
好又多	-18959
实在没	-18960
就真的	-18961
应该在	-18962
手抓饭	-18963
提前订	-18964
最后在	-18965
的人来	-18966
的女人	-18967
花枝丸	-18968
跟以前	-18969
这可是	-18970
以后发现	-18971
价格也不	-18972
吃得很饱	-18973
当时觉得	-18974
有服务员	-18975
真的很小	-18976
碳酸饮料	-18977
味道都很不错	-18978
最喜欢他家的	-18979
实在是不敢恭维	-18980
CE	-18981
FF	-18982
LD	-18983
▁切	-18984
▁地	-18985
一丁	-18986
下定	-18987
之路	-18988
佳能	-18989
再好	-18990
出手	-18991
剩余	-18992
吃客	-18993
是他	-18994
热炒	-18995
皮带	-18996
起士	-18997
阳春	-18998
▁产品	-18999
▁酸菜	-19000
一两次	-19001
不下去	-19002
个什么	-19003
住附近	-19004
体现了	-19005
供参考	-19006
很香甜	-19007
得益彰	-19008
最后都	-19009
清汤的	-19010
点评过	-19011
老妈说	-19012
自己来	-19013
过年的	-19014
▁一个是	-19015
一点没有	-19016
令人失望	-19017
实在太多	-19018
感觉好像	-19019
很香很好吃	-19020
的地方就是	-19021
之二	-19022
全无	-19023
半点	-19024
唔同	-19025
喜来	-19026
对这	-19027
抹布	-19028
排斥	-19029
终究	-19030
羊肚	-19031
豆奶	-19032
里到	-19033
麵包	-19034
下降了	-19035
也是要	-19036
产生了	-19037
偏甜了	-19038
去的了	-19039
吃出了	-19040
和好友	-19041
对的起	-19042
必不可	-19043
放的是	-19044
新鲜感	-19045
服务了	-19046
木瓜汁	-19047
机会去	-19048
来一个	-19049
猪五花	-19050
第三天	-19051
觉得腻	-19052
ther	-19053
▁因为有	-19054
特别适合	-19055
都在这里	-19056
▁本来以为	-19057
觉得他家的	-19058
ai	-19059
▁U	-19060
▁卡	-19061
上也	-19062
不就	-19063
区分	-19064
圆的	-19065
差价	-19066
往南	-19067
心而	-19068
我可	-19069
抓紧	-19070
替代	-19071
椰浆	-19072
汤锅	-19073
深水	-19074
煲的	-19075
爪子	-19076
蛋清	-19077
规格	-19078
也正好	-19079
但口味	-19080
全新的	-19081
前几年	-19082
原味鸡	-19083
只吃过	-19084
喜爱的	-19085
大明虾	-19086
就没点	-19087
开心果	-19088
有效期	-19089
湘菜的	-19090
看得到	-19091
那我就	-19092
顺利的	-19093
香浓的	-19094
很漂亮的	-19095
旁边的小	-19096
没啥味道	-19097
相得益彰	-19098
第二天就	-19099
这么一个	-19100
一等	-19101
不应	-19102
书了	-19103
來的	-19104
半杯	-19105
双层	-19106
合肥	-19107
好快	-19108
巴适	-19109
拼了	-19110
汤粉	-19111
海鮮	-19112
熙熙	-19113
职场	-19114
顺风	-19115
颗的	-19116
风筝	-19117
▁在这	-19118
▁来到	-19119
也不给	-19120
以下的	-19121
吃早饭	-19122
土豆条	-19123
居酒屋	-19124
差多了	-19125
幸运的	-19126
很厉害	-19127
故事的	-19128
没位子	-19129
甜口的	-19130
的一张	-19131
羊肉片	-19132
贵宾卡	-19133
身边的	-19134
还担心	-19135
还有那	-19136
▁脆脆的	-19137
可圈可点	-19138
很不新鲜	-19139
收拾桌子	-19140
貌似没有	-19141
▁这家店的	-19142
也就那么回事	-19143
不换	-19144
二手	-19145
位了	-19146
体系	-19147
动感	-19148
同济	-19149
后我	-19150
家菜	-19151
寺庙	-19152
就怕	-19153
把手	-19154
杀的	-19155
气泡	-19156
理你	-19157
翅中	-19158
路和	-19159
选材	-19160
那碗	-19161
面团	-19162
▁开业	-19163
▁还能	-19164
▁酱料	-19165
件事情	-19166
会帮你	-19167
千岛湖	-19168
只看到	-19169
和鸡翅	-19170
喜欢上	-19171
新西兰	-19172
精美的	-19173
要去吃	-19174
都木有	-19175
韩式的	-19176
两三个人	-19177
吃了之后	-19178
就有食欲	-19179
怎么可能	-19180
点半到的	-19181
荤素搭配	-19182
随处可见	-19183
非常失望	-19184
没有什么人	-19185
点单的时候	-19186
过年的时候	-19187
一篇	-19188
也别	-19189
办完	-19190
地在	-19191
实诚	-19192
成果	-19193
时节	-19194
肉块	-19195
贴近	-19196
野食	-19197
ell	-19198
▁两人	-19199
▁吼吼	-19200
▁在我	-19201
▁泡菜	-19202
上面浇	-19203
不过去	-19204
口味吧	-19205
咖啡味	-19206
客服说	-19207
我今天	-19208
最后我	-19209
洋洋的	-19210
的一桌	-19211
粘粘的	-19212
绝对比	-19213
超级的	-19214
还好有	-19215
▁上面的	-19216
上了一个	-19217
以前都是	-19218
会做生意	-19219
其他家的	-19220
原本以为	-19221
就没那么	-19222
我们去了	-19223
我们这里	-19224
没吃过的	-19225
还有一道	-19226
环境非常好	-19227
被告知没有	-19228
pr	-19229
像样	-19230
公鸡	-19231
再等	-19232
外出	-19233
外部	-19234
对照	-19235
就那	-19236
底层	-19237
报了	-19238
是卖	-19239
汤团	-19240
淮山	-19241
满百	-19242
白米	-19243
真题	-19244
竹签	-19245
绝不	-19246
舞池	-19247
莫非	-19248
蒜汁	-19249
软饮	-19250
闵行	-19251
面带	-19252
▁凉拌	-19253
▁很快	-19254
▁类似	-19255
也十分	-19256
比利时	-19257
猪耳朵	-19258
男一女	-19259
的广告	-19260
能做到	-19261
觉得不	-19262
还好了	-19263
▁老字号	-19264
学生时代	-19265
就放弃了	-19266
很贴心的	-19267
蛮舒服的	-19268
调出来的	-19269
面无表情	-19270
喜欢吃辣的	-19271
AA	-19272
下心	-19273
中兴	-19274
也超	-19275
人吧	-19276
公社	-19277
古董	-19278
打造	-19279
汉语	-19280
烤鳗	-19281
美了	-19282
越是	-19283
车车	-19284
领取	-19285
▁免费	-19286
买一些	-19287
具体的	-19288
出去的	-19289
可可粉	-19290
吓到了	-19291
在他们	-19292
在排队	-19293
我一看	-19294
我不会	-19295
我也很	-19296
手忙脚	-19297
新品种	-19298
滋滋的	-19299
百香果	-19300
的甜品	-19301
虾仁的	-19302
订的是	-19303
负责的	-19304
那真是	-19305
东西很多	-19306
也挺好吃	-19307
婚庆公司	-19308
就足够了	-19309
服务不好	-19310
求这本书	-19311
越来越好	-19312
里面的馅	-19313
▁不过味道	-19314
发现了这家	-19315
咖喱的味道	-19316
对于我这个	-19317
麻酱油麦菜	-19318
没什么印象了	-19319
NX	-19320
一线	-19321
兼职	-19322
啥啥	-19323
就该	-19324
庙会	-19325
待机	-19326
斤多	-19327
更爱	-19328
水温	-19329
没味	-19330
网卡	-19331
蒜末	-19332
行政	-19333
被他	-19334
走道	-19335
铺了	-19336
频道	-19337
高温	-19338
·~~	-19339
▁小店	-19340
不稳定	-19341
到门口	-19342
吃的太	-19343
就非常	-19344
我还在	-19345
拌牛肉	-19346
留学生	-19347
舒服啊	-19348
西安的	-19349
配菜是	-19350
不过可能	-19351
其他菜品	-19352
只有一种	-19353
吃了两口	-19354
和我一样	-19355
抹茶蛋糕	-19356
拿在手里	-19357
超级无敌	-19358
超级难吃	-19359
还是一个	-19360
都说好吃	-19361
面积不大	-19362
不是很干净	-19363
吃的饱饱的	-19364
都是这样的	-19365
求这本书求这本书	-19366
AR	-19367
之恋	-19368
买满	-19369
内里	-19370
冷盆	-19371
名著	-19372
听得	-19373
层高	-19374
工人	-19375
有条	-19376
欠她	-19377
盆盆	-19378
莴苣	-19379
译本	-19380
贴纸	-19381
遥控	-19382
▁以及	-19383
▁啤酒	-19384
▁晚饭	-19385
一辈子	-19386
丸子的	-19387
也很高	-19388
呢间店	-19389
周末的	-19390
圆形的	-19391
小饭馆	-19392
就想吃	-19393
怀念啊	-19394
我们想	-19395
摆放的	-19396
有一半	-19397
有空调	-19398
用勺子	-19399
看中的	-19400
看到我	-19401
真不是	-19402
说实在	-19403
足够的	-19404
都还好	-19405
随意的	-19406
▁由于是	-19407
也很好看	-19408
做的一般	-19409
全麦面包	-19410
印刷质量	-19411
小时候的	-19412
很大一盆	-19413
旁边有个	-19414
烤三文鱼	-19415
白切羊肉	-19416
记不清楚	-19417
金枪鱼的	-19418
不知为什么	-19419
做的也不错	-19420
还是比较多的	-19421
de	-19422
不便	-19423
修饰	-19424
恰巧	-19425
有四	-19426
望湘	-19427
杂八	-19428
爆发	-19429
牛羊	-19430
猜测	-19431
眼界	-19432
端了	-19433
精肉	-19434
西欧	-19435
豪爽	-19436
趣的	-19437
车库	-19438
较小	-19439
随身	-19440
面很	-19441
麦克	-19442
七浦路	-19443
个头大	-19444
乍一看	-19445
和我的	-19446
天天吃	-19447
我都要	-19448
炖粉条	-19449
萝卜皮	-19450
酸甜口	-19451
▁而且是	-19452
大家都在	-19453
希望大家	-19454
最好不要	-19455
比外面的	-19456
相当好吃	-19457
而且分量	-19458
还是需要	-19459
都很入味	-19460
不过吃起来	-19461
就可以看到	-19462
唯一的缺点就是	-19463
qu	-19464
中信	-19465
了才	-19466
付出	-19467
克里	-19468
发达	-19469
只点	-19470
只顾	-19471
叮嘱	-19472
大呼	-19473
很短	-19474
徘徊	-19475
手册	-19476
拉了	-19477
杀人	-19478
汁多	-19479
没过	-19480
留在	-19481
耳闻	-19482
讨喜	-19483
驱车	-19484
▁一大	-19485
▁小笼	-19486
不过那	-19487
之后才	-19488
买单时	-19489
带孩子	-19490
最中意	-19491
有些老	-19492
还是得	-19493
这些菜	-19494
都做的	-19495
酿豆腐	-19496
餐厅了	-19497
可以尝试	-19498
味道挺好	-19499
整个餐厅	-19500
服务也是	-19501
每次吃完	-19502
里面就是	-19503
鸭血粉丝	-19504
我个人认为	-19505
YO	-19506
▁玩	-19507
倒在	-19508
兩個	-19509
回鱼	-19510
太晚	-19511
并无	-19512
整的	-19513
煤气	-19514
篇幅	-19515
至终	-19516
[...]
